<s>
<e>
<unk>
die
und
der
zu
ist
in
ich
wir
es
Sie
das
dass
von
ein
eine
nicht
sie
den
Ich
auf
mit
um
wie
diese
sich
für
sind
Das
haben
Wir
als
des
können
auch
was
Es
ist,
an
im
einen
sehr
dem
werden
wenn
Menschen
Die
uns
Aber
aber
oder
Wenn
nur
er
kann
du
über
wird
einer
aus
mich
einem
dieser
"@@
hat
so
noch
gibt
alle
habe
dieses
Dies
nach
ihre
immer
viele
war
weil
In
Und
mehr
ist.
Welt
man
keine
meine
müssen
mir
haben,
einige
Was
andere
unsere
durch
also
Der
wirklich
diesem
Diese
Er
vor
Jahren
zum
diesen
dann
Dinge
anderen
wurde
sind,
dies
am
etwas
Leben
bin
zwei
sehen,
können,
Zeit
jetzt
.
sein
Wie
bis
,
hier
mein
Leute
en,
Also
werden.
Ihnen
zur
möchte
eines
Als
viel
en.
haben.
werden,
können.
ihr
-@@
nicht,
sondern
bei
sehen
seine
ihnen
sind.
t,
t
selbst
Jahre
ob
zwischen
denke,
sagen,
ten
t.
sein,
te
muss
tun
werde
e,
Kinder
drei
Dann
Ihre
"
kann.
s
Geschichte
jeder
ich,
sagte:
meiner
?
Art
tatsächlich
kann,
unser
Beispiel
neue
ver@@
wissen,
während
große
alles
verschiedene
Du
So
an@@
kein
wo
erste
Problem
heute
e
war,
en
warum
vielleicht
es,
nie
wird,
:
machen
Ein
meisten
Im
Vereinigten
ihn
damit
sagte
sein.
e.
er@@
Teil
wird.
da
gut
dir
unserer
ohne
Tag
dich
hat,
Millionen
unter
wieder
an,
Jahr
en@@
ihren
er,
ge@@
genau
un@@
vom
denn
etwa
Eine
darüber
“
bereits
ein@@
Jetzt
Informationen
einfach
Daten
einmal
s,
ersten
meinem
be@@
Land
tun,
paar
Arbeit
wissen
Technologie
sogar
Menschen,
auf@@
meinen
ab@@
denen
Staaten
letzten
gehen
Ihr
hat.
euch
kleinen
Dieses
eigenen
habe,
en?
waren
t@@
kleine
ung
Person
te,
Frage
seit
großen
verschiedenen
Tatsächlich
aus@@
wurden
Frauen
Geld
ihrer
Gehirn
sollten
oft
fast
Ende
s.
vier
sagen
gerade
zehn
namens
Weise
verwenden,
Situation
ganzen
Sie,
gibt,
Zukunft
Ver@@
Weil
geht
Natürlich
weiß
Denn
allen
wollen
beiden
gute
jeden
hatte
er.
will
sehen.
ten,
an.
besser
weiß,
Warum
keinen
glauben,
verstehen,
gab
Okay,
jedoch
Mal
ung,
a
-
Probleme
Körper
verwenden
fünf
'@@
k@@
s@@
d@@
verwendet
würde
nichts
Erde
vielen
glaube,
darauf
davon
st@@
Gruppe
Ort
S@@
Seite
war.
jedes
dort
in@@
über@@
später
Wasser
te.
völlig
unseren
Daher
sch@@
Meine
sollte
vor,
kannst
machen.
ins
Vor
machen,
Unternehmen
das,
geben
Hier
schon
brauchen
nicht.
Dieser
i
Vielleicht
solche
lange
ter
A@@
b@@
Auf
wir,
Um
Bild
Mein
Deshalb
."
finden
ieren
Weg
ihm
all
Kind
bedeutet,
begann
o
o@@
neuen
schnell
tun.
ging
wollen,
finden,
wurde,
eigentlich
ern
um@@
weiter
pro
jemand
ent@@
Für
unserem
wurde.
Milliarden
"Ich
indem
Entwicklung
Lassen
g@@
ung.
Raum
f@@
e@@
Danke.
Einige
Zum
Idee
seiner
ungen
denken
ungs@@
a@@
Nach
Patienten
New
Computer
erhalten
menschlichen
nächsten
System
habe.
müssen,
möchte,
verstehen
P@@
Also,
",
deine
Danke
Gesellschaft
seinen
Stadt
!
sagen:
y
(@@
ten.
daran
An@@
gleiche
einigen
sagte,
kommen
jede
st
al@@
Tat
weniger
geben,
leben
du,
Mutter
glaube
Arten
hast
Be@@
B@@
gemacht
lassen
liegt
macht
K@@
besteht
natürlich
denken,
ar@@
zurück
gleichen
Projekt
Dinge,
Antwort
z@@
Frau
zu@@
Ideen
menschliche
Prozess
gesehen
damals
Ist
Grund
Thema
wichtig
Anzahl
Moment
sieht
gehen,
mich,
Fragen
bedeutet
Blick
Foto
Energie
n@@
ganze
uns,
kam
Menge
Rede
T@@
gegen
Regierung
i@@
Natur
d
p@@
wäre
aus,
helfen,
sechs
Nun,
".
Buch
wer
Familie
c@@
zuerst
G@@
Schule
denke
t?
Form
auch,
Mit
Am
stellen
E@@
Bedeutung
dass,
de
y@@
welche
versuchen,
daran,
mag
st,
bevor
Veränderungen
hoffe,
Punkt
vor@@
m@@
Ein@@
C@@
dazu
ieren,
sprechen
re@@
el@@
Gefühl
Obwohl
gesamte
Augen
weit
Länder
u@@
Forschung
ihrem
Welt,
zusammen
aus.
Perspektive
Vor@@
F@@
Viele
ste
sprechen,
D@@
Wissen
ende
h@@
bisschen
sah
Angst
arbeiten
Ab@@
Jeder
Ergebnis
R@@
Unsere
weitere
Reihe
Fotos
ganz
Hause
of
könnte
leicht
ch@@
zeigen,
igen
zweite
iert
ische
innerhalb
H@@
mal
kommt
sie,
Internet
W@@
L@@
Geschichten
obwohl
N@@
alt
jedem
Musik
nächste
w@@
sowie
Sache
schließlich
en:
genug
Afrika
on@@
ischen
bringen
Design
gesamten
Mädchen
es.
Oder
größte
niemand
hatte,
enden
liche
seinem
Vater
darin,
einzige
Auto
ieren.
ziemlich
Ergebnisse
besonders
sten
Methode
Bereich
gen
oder?
Zeit,
mir,
or@@
Ja,
Sch@@
Kindern
direkt
wenig
Aus@@
derzeit
zurück@@
Licht
Verständnis
wurden.
M@@
vollständig
Verhalten
Auswirkungen
geben.
unter@@
Konzept
heraus,
anderes
Lebens
passiert
oben
Er@@
mehrere
bist
Ziel
Stellen
Ihren
bestimmten
Man
di@@
Damals
O@@
dein
dachte
Gebäude
beim
Alter
Sprache
iert,
ierten
glauben
Anfang
sei
sp@@
Nicht
letzte
Kraft
Ländern
gesagt,
Mann
hatten
ing
getan
Dollar
ständig
diejenigen,
Heute
ation
zeigt
Grund,
Schritt
Denken
manchmal
Eltern
fand
China
ens
tes
Erfahrung
heißt,
ungen,
on
gleichzeitig
da@@
le@@
meines
r@@
dafür
de@@
eigene
anderer
ter@@
wichtige
miteinander
Kopf
Da
erreichen
Ihrem
gehen.
Nun
Hand
einschließlich
Minuten
Hälfte
nutzen
Wissenschaft
Nachdem
ge
ern,
ige
anstatt
Bilder
voller
zwanzig
wurden,
ierte
l@@
Glück
musst
al
gen,
Alle
a,
3@@
besten
Stunden
nächstes
helfen
Zahl
lang
Haus
finden.
is@@
le
Indien
'
müssen.
at@@
ro@@
gehört
erhalten,
vorstellen,
d,
Ihrer
Richtung
erst
beste
?"
Fall
gibt.
York
4@@
konnte
sofort
Selbst
iert.
Zellen
Tiere
Boden
fanden
auf,
gen.
zeigen
zusammen@@
v@@
Tages
würden
neu
Wort
Film
lernen
spielen
halten
das?
nehmen
ungen.
Re@@
schwierig
Jahren,
Mal,
führen
Universum
Roboter
bereit
wirst
ier@@
hinaus
te@@
ähnlich
einfache
verstehen.
Kunst
Tausende
unseres
Fähigkeiten
extrem
Umgebung
schwer
schaffen,
Hilfe
Video
feststellen,
überall
k
nachdem
scheint
Wochen
stehen
ss@@
groß
Bildung
Wasser@@
Planeten
meine,
überhaupt
fühlen
sieben
ale
soziale
geht,
anders
wegen
aller
Wert
Entscheidungen
lichen
Macht
t:
I@@
Lage
leben,
In@@
normalerweise
Aufmerksamkeit
Schließlich
erfolgreich
m
kommen,
möglich
sozialen
neues
Liebe
hören
erreichen.
Zu
Woche
ein,
kurz
Generation
erhalten.
schaffen
alten
isch
Welt.
Modell
teilen
Experiment
st.
Auch
Möglichkeit
Fuß
)
Kosten
Aus
Unterschied
hinter
Freunde
Eigentlich
solchen
acht
bitte
ändern
Eines
nun
Nur
erreicht
Lebens@@
Rolle
Straße
hier,
nutzen,
;
waren,
den@@
Spiel
wahrscheinlich
Vergangenheit
Un@@
tun?
den,
Männer
entwickelt
Haupt@@
lassen,
hätte
ra@@
et@@
nennen
Darüber
Beziehung
Gott
kleiner
Fehler
Wissenschaftler
Krieg
Meinung
Studenten
Behandlung
großes
bin,
gel@@
plötzlich
5@@
Person,
je
Wer
sehr,
alles,
bringen,
Monate
nahm
Lehrer
ter,
d.
erkennen,
Tage
interessante
Leute,
Ma@@
arbeiten,
lernen,
de,
sprechen.
ger@@
Größe
ti@@
allmählich
Vergleich
Grunde
Namen
TED
begannen
Ressourcen
An
etwas,
Sache,
zuvor
g
ha@@
ck@@
bestimmte
J@@
definitiv
ischer
ers
allem
Unser
Publikum
verwendet,
hin@@
Autos
auf.
hatte.
Gleichzeitig
egal
her@@
großer
ur@@
gen@@
Bitte
kleines
ck
Jedes
ol@@
Fähigkeit
aufgrund
em
fragen
Methoden
Bewegung
Während
ie
ben
gerne
en"
St@@
nur,
fragte
Website
lassen.
8@@
Erstens
Teile
Manchmal
richtig
Lösung
Team
7@@
Struktur
stark
heißt
Stück
Meilen
tet
bringen.
Kultur
bauen
V@@
lösen
el
erreichen,
Können
Schüler
auszu@@
$@@
Zustand
wichtig,
en."
herum
verbunden
y,
der@@
Auf@@
gemeinsam
hoch
tet,
versuchen
Computer@@
darin
sa@@
Nacht
ist:
Technologien
l
Mensch
Mar@@
Le@@
ähnliche
Möglichkeit,
tief
Materialien
passieren
Bevölkerung
fühle
Über@@
sen@@
globale
Markt
Job
il@@
Produkte
ge,
ko@@
mögen
am@@
Gedanken
erinnere
wichtiger
verursacht
Dingen
Tod
hoffen,
desto
Durch
neben
Z@@
as
junge
it@@
om@@
Einfluss
op@@
ie,
Krankheiten
Karte
se
sen
also,
Gesundheit
ma@@
glücklich
wollen.
gesagt
geboren
bereit,
kommen.
geworden
Freund
so.
ot@@
ri@@
Grad
lich
öffentliche
Personen
falsch
darum,
Aufgabe
University
Krankheit
lich.
Genau
Beispiel,
and
Krebs
entwickeln
lösen.
waren.
Realität
alte
Al@@
einzu@@
Monaten
n
Zeit@@
"Was
aktuelle
Reise
weiterhin
erklären,
Selbst@@
ig@@
Seit
gemacht.
g,
öffentlichen
würde,
Ära
beginnen
n,
Werfen
schauen
Oberfläche
nämlich
unten
6@@
durch@@
so,
Labor
verlassen
anzu@@
muss,
Von
ere
Jahrhundert
größten
Weise,
Wirtschaft
Name
Gemeinschaft
verwenden.
sagt
globalen
voll
früher
Mitte
gesehen,
fragen,
Nachrichten
sicher,
Emotionen
Luft
hart
Wahl
...
hin
schöne
Weißt
bessere
mi@@
Muster
schrieb
Organisation
Menschen.
weißt
ul@@
lich,
Möglichkeiten
ange@@
Medien
klar
Erfahrungen
beträgt
ge.
sowohl
weltweit
dritte
"Das
Erfolg
erkennen
ern.
end
heutigen
geworden.
ts
1
hundert
chen
ändern,
Städte
mm@@
sollen
Ort,
2@@
Beispiele
beide
Herzen
Themen
sagten
ten@@
sicher
alen
kamen
Verbindung
will,
wollte
Position
Orte
iger
ä@@
Jahren.
passiert,
sagten:
größer
Tatsache
Verwendung
Worte
Bis
Geschwindigkeit
Wahrheit
Google
Gefühl,
Theorie
de.
geb@@
Sp@@
guten
z
licher
stellen,
gelernt
eln
h
Artikel
Satz
9@@
se@@
Später
dasselbe
Orten
eigenes
darauf,
kaufen
Schul@@
la@@
or
verändert
Essen
machte
schlechte
genannt
Vielen
.@@
a.
wissenschaftliche
Bei
zeigt,
li@@
deinen
ik@@
Politik
liches
Medikamente
sage
Ebene
schaffen.
Arzt
steht
ler
suchen
DNA
30
verändern
ab,
wer@@
unterschiedliche
ut@@
Gehirns
aufzu@@
relativ
ihres
Umwelt
medizinische
Idee,
teilen,
halten.
men
Eigenschaften
u
Seine
tragen
muss.
hören,
Mo@@
2
stellen.
ist?
sich,
Unterschiede
is
beginnt
außerhalb
Grund@@
Weg,
möchten,
Plan
kennen
zumindest
Aktivitäten
sk@@
Maschine
Netzwerk
bewegen
dachte,
eher
klar,
Um@@
Sorgen
Fähigkeit,
Mon@@
Gruppen
los
Nähe
Nein,
politische
on,
Bücher
hoffe
Uhr
gegenüber
Geschichte,
n.
Platz
Tagen
befindet
ab
Se@@
ster
Ta@@
gingen
De@@
hängt
zusammen,
spielen.
Hand@@
bauen,
es@@
allein
le,
be
e"
Schlüssel
gefunden
zu,
Experimente
rei@@
erkannte
Problem,
befinden
Gehirn@@
Zusammenarbeit
Stimme
Design@@
ber@@
entfernt
Phänomen
Ge@@
weiteres
den.
Chris
teilen.
jemanden
oh,
Gesicht
richtig?
Pflanzen
Innovation
ir@@
Amerikaner
e?
wert
wirklich,
Sicht
allen.
Bakterien
jungen
Öffentlichkeit
schwierig,
Online-@@
weiter.
wahre
us
ig
erfordert
Ar@@
ben,
Produkt
schreiben
Ha@@
Nach@@
Ro@@
Regeln
linken
Revolution
Arbeits@@
U@@
versucht,
Sicherheit
arbeiten.
vorstellen
ho@@
stand
Unter@@
setzen
bald
interessant
weg@@
Einer
gebaut
leben.
all@@
immer,
Zu@@
zeigen.
zufällig
Frage,
m,
Leben,
hier.
Hunderte
ter.
usw.
wenige
schneller
sagt,
Sobald
fühlen,
Bezug
lo@@
lösen,
Reaktion
au@@
legen
j@@
ie@@
Sein
Gebiet
Bar@@
hast,
Sehen
sagen.
gemacht,
sollten,
bringt
Gewalt
o,
natürliche
online
fen
Herausforderung
frei
gt
Veränderung
isches
würde.
Teilen
führen.
Verantwortung
Vorteile
Gene
we@@
Preis
soll
Kinder@@
betrachten,
gut.
lan@@
anfangen,
50
sche
Öl
Nahrung
ehrlich
ändern.
Bi@@
erzählen,
Kommunikation
konnten
ag@@
ben@@
us@@
spielen,
Oh,
Kontrolle
interessiert
weg
wirtschaftliche
len
Sonne
ziehen
Pro@@
Schauen
All
brauchen,
Mitarbeiter
sammeln
mit@@
zurück.
ausge@@
halten,
lässt
Wo
eren
Forschungs@@
100
Technologie,
erinnern,
diejenigen
war@@
ah@@
traf
Beziehungen
Hände
Spiele
er:
ab.
bare
"Wir
Bau@@
ein.
gegeben
entwickelt,
darüber,
riesige
werden?
Niemand
tern
Ärzte
nach,
Menschheit
Existenz
Familien
wachsen
nen
Nachricht
ender
könnten
komplexe
hal@@
Gen@@
Papier
zwölf
Kann
insbesondere
bekannt
vorher
schen
solange
g.
ing@@
Software
führen,
essen
bin.
Energie@@
geschrieben
festgestellt,
Tier@@
Unterstützung
Kollegen
basierend
fahren
politischen
gewissen
ist@@
y.
amerikanischen
Gerät
Ozean
gilt
Sprach@@
Evolution
Himmel
Musik@@
cken
La@@
ben.
nennen.
ismus
8
Europa
Landes
wichtigste
system
lokalen
Kunst@@
wissenschaftlichen
einfach,
Morgen
beschlossen,
Kamera
der,
Ziele
200@@
brachte
ig,
verloren
Finanz@@
Strom
deinem
Meer
ierung
nach@@
mache
hatten,
Region
in,
stellt
iges
ien
effektiv
Flugzeug
ei@@
sin@@
Sohn
Linie
starke
Schulen
Regel
Bühne
entwickeln,
al,
and@@
ie.
echte
erhielt
langsam
Y@@
fest
heit
lernen.
el,
mir:
zweiten
sie.
Leider
unabhängig
Lass
Operation
tische
kaufen,
Telefon
per@@
wäre,
durchgeführt
dern
Ansatz
möglicherweise
Monat
Leistung
gut,
Formen
kt
nimmt
ern@@
liebe
höher
lesen
rechten
tigen
Leuten
Tür
ts@@
Umwelt@@
ste,
Noch
beobachten,
scheint,
guter
Grenzen
lokale
os
ke
suchen,
kt@@
neun
Kinder,
Grundlage
gleich
Punkte
bar
ert
zen
Leben.
Welt@@
Ent@@
bauen.
Studie
lass
Geist
Demokratie
konfrontiert
18@@
tige
treffen
ak@@
Staaten,
erzählen
werfen
Bo@@
Programm
laufen
Welche
riesigen
Land,
führt
os@@
Szene
's
eng
Gesundheits@@
Gründe
Manche
ell@@
nachdenken,
jemals
stellte
hohen
funktioniert
erwähnt
ation@@
um,
ch
si@@
ung@@
genauso
sonst
Herz
hin,
He@@
wählen
ru@@
kommt,
Organisationen
ta@@
bekommen
gebracht
Jede
Super@@
wann
"Es
Gesetz
Zahlen
gl@@
Druck
Virus
al.
geworden,
lei@@
zusammen.
end@@
iere
Öl@@
3
m.
fing
as@@
gehört,
Kontakt
schön
ermöglicht
verbessern
Führer
oren
Studien
erlebt
frühen
medizinischen
Niveau
wichtigsten
Hoffnung
beginnen,
Danach
dem,
Maschinen
nehmen,
Ding
Spiel@@
lich@@
ken
tieren
weiterer
Lebensmittel
fest@@
Bewusstsein
200
außer
Kreativität
ger
Schwierigkeiten
verändern.
entdeckt
p
e:
ster@@
b
w
braucht
bau@@
jetzt,
Mathematik
sollten.
musste
School
traditionelle
Sekunden
Zentrum
heraus@@
ation,
zeit
fangen
Unter
Wand
en-@@
ach@@
Ihnen,
Wirklichkeit
Daten@@
erzählen.
Eis@@
konzentrieren
gesehen.
bewusst
finde
pf@@
ne
Farbe
ansehen,
gutes
hätten
Freiheit
konnte.
Heutzutage
davon,
ne@@
Worten,
hauptsächlich
sah,
Gefängnis
hörte
Verfügung
f
nein,
Drittel
Dank
einander
pp@@
x@@
verantwortlich
se,
macht,
Vertrauen
Stunde
"Wenn
men@@
sterben
Seiten
Zweck
grundlegende
Angelegenheit
gen?
hoch@@
einfachen
fühlte
30-@@
passiert.
neuer
Kern@@
ff@@
Car@@
ens@@
4
langen
aktuellen
tausend
schönen
nachzudenken,
tig@@
wei@@
TED-@@
Städten
500
bat
mindestens
Je
hohe
alle,
Luft@@
no@@
bar@@
Dinge.
Rück@@
Künstler
schreiben,
me
Schönheit
Maßnahmen
Straßen
besteht,
persönliche
fliegen
Reden
Okay.
National
tung
den?
zurück,
veröffentlicht
ieren?
sorgfältig
Tag,
Klang
ungefähr
A
Problem.
ent
rate
endlich
bo@@
Gott,
ihnen,
diskutieren
ation.
Werkzeuge
baren
wusste
e-@@
bi@@
benutzen
Atmosphäre
erinnern
persönlichen
Mittel
Geräte
willst
sahen
haben?
bleiben
ene
Sa@@
existiert
fen,
Situationen
ss
ell
seines
6
abzu@@
sitzen
sobald
Produktion
daher
beobachten
Armut
reden
mal@@
zeige
enen
Bevor
dazu,
Bedingungen
Derzeit
Jungen
da,
Dr.
Spitze
High
fühlt
Million
Zusammenhang
sehe
verbinden
ations@@
"Wie
erster
ig.
Wachstum
Ecke
Krankenhaus
Suche
kon@@
Beginn
ü@@
selbst.
qu@@
wahr
En@@
bei@@
Version
einst
Gefühle
kam,
Klasse
Lösungen
betrachten
richtige
verschiedener
John
heit,
20-@@
Frauen,
ationen
spielt
Funktion
fen.
bilden
Organismen
zu.
To@@
spiel@@
tra@@
erzählte
elle
Bildschirm
treffen,
amerikanische
Temperatur
wirtschaftlichen
länger
tier@@
insgesamt
Glauben
sollte.
geht.
scheinen
Standpunkt
Experten
Kon@@
le.
offensichtlich
Religion
em@@
ft@@
ich:
Gelegenheit
brauche
Regionen
Körpers
endes
wider@@
he@@
tete
Wege
modernen
weiter@@
aktiv
Fortschritt
so@@
Jahres
deiner
teten
und@@
enz@@
gelernt,
ja,
wichtig.
Alles
selbst@@
Freunden
15
Soldaten
Inhalt
um.
Informations@@
Sieh
ds
Aktivität
Man@@
tern,
20
gt,
könnten,
Abend
erstaunliche
Großbritannien
vielleicht,
einfach.
wunderbare
Gespräch
us,
Früher
Antworten
unglaublich
teil@@
Vereinten
Laufe
großartige
entscheiden,
Jahre,
Rei@@
tet.
Los
zukünftige
realen
ad@@
"Oh,
zurückzu@@
Entdeckung
hielt
diskutieren,
Präsident
Herz@@
einmal,
x
sollen.
1990er
rund
Arbeiten
Zwei
klingt
werde,
möglich,
dar@@
Kombination
noch,
daten
7
Mitgefühl
seltsame
Bildungs@@
ber
Lernen
Bild@@
wahr?
enk@@
Dorf
Verbindungen
par@@
Geschäfts@@
Höhe
folgenden
1960er
Meter
Zuerst
Hirn@@
könnte,
Co@@
täglichen
Blut@@
Videos
Wörter
dung
links
Qu@@
ess@@
schlecht
jung
Titel
Material
Sinn
Haben
erst@@
kennen,
aler
Herausforderungen
vergangenen
Recht
ursprünglichen
Liste
zwei@@
mal,
persönlich
hierher
bist,
"Warum
Universums
Di@@
Geschichte.
Gegenteil,
verstehe
verlieren
helfen.
40
interessant,
Wirkung
sollte,
angefangen
fahr@@
lebt
wenigen
arbeite
Bienen
aussehen
deutlich
entwickeln.
1@@
San
War@@
Mikro@@
rechts
Karriere
dauert
dr@@
klein
Kar@@
Designer
kürzlich
Sehr
Gewicht
US-@@
än@@
getroffen
en;
überrascht
einfacher
Zeit.
Museum
treffen.
det
ze
komplett
sein?
land
Bereichen
ik
langer
geschaffen
rie@@
aufgenommen
Lo@@
Erklärung
alt@@
Informationen,
glaubt,
hören.
handelt
Architektur
Neuronen
Quelle
geschah
Außerdem
er-@@
dritten
ssen
deren
entworfen
br@@
traditionellen
Körper@@
Arbeit,
Allerdings
ellen
lichkeit
fühlen.
ft,
f,
mu@@
Kunden
Test@@
20@@
Faktoren
ka@@
Firma
sie:
to@@
man@@
Daten,
durchschnittliche
drei@@
geh@@
Einkommen
do@@
rechte
einge@@
gehört.
ermöglicht,
geeignet
Entscheidung
Netzwerk@@
a-@@
Insekten
zer@@
ursprünglich
Ch@@
Projekte
ich.
richtigen
Fortschritte
konnte,
wichtigen
"Okay,
isch@@
würden,
selbst,
behandeln
konzentrieren,
gewöhnliche
getan.
schwarze
her
saß
Lebensmittel@@
hatten.
Opfer
vier@@
Polizei
o.
Filme
Ka@@
menschlicher
offensichtlich,
tiger
verändert.
Details
ar
ph@@
Beweise
solcher
damit,
daraus
tion
studieren,
Spielen
Geburt
Lern@@
Büro
Forscher
Entwicklungs@@
testen
Tochter
on.
Ko@@
Fluss
frei@@
innen
ologie
Maus
du@@
Wunsch
Fra@@
ermöglichen,
fest,
Aspekt
ob@@
Interesse
bet@@
tut
voll@@
Ho@@
suchen.
einiger
erstellen,
Pfund
tig
mehr,
alt.
speziell
dafür,
später,
schwarzen
stelle
mon@@
Ra@@
ktion
Definition
nenne
Mars
David
wieder@@
biologische
Potenzial
Ausbildung
är@@
erzeugt
vertraut
Transformation
ö@@
mich.
studieren
westlichen
letztes
abgeschlossen
erleben
begann,
Land@@
führte
Ga@@
weiteren
Wohn@@
ien,
Zweitens
tragen,
ursprüngliche
ap@@
möchte.
Werke
mo@@
ys
nennen,
Wal@@
"Du
gest@@
kommunizieren
Ihres
kontrollieren
besorgt
Händen
sta@@
Werte
ft
Kleidung
Bestes
Glück,
versch@@
niemals
t."
Tieren
es?
Ob
entspricht
verlassen,
einzigartige
gemeinsame
Lieblings@@
gezeigt
komplexen
achten
Warum?
lie@@
stehen,
gi@@
Wettbewerb
Fa@@
1980er
moderne
verbessern.
Prinzip
unmöglich
Kannst
gra@@
tem
lin@@
ganzes
AIDS
Bäume
Gra@@
300
herauszufinden,
Bürger
Traum
das.
sprach
alter
zunächst
gefüllt
Jemand
ine
macht.
starken
Haus@@
Pa@@
Glücklicherweise
ans
leisten
Unternehmen,
raum
Offensichtlich
Haut
Meeres@@
unglaubliche
fahren,
erklären
basiert
sieht,
Treffen
Schmerz
gesch@@
Trend
Nationen
Plötzlich
Bau
eln,
-jährigen
chen,
Objekt
fuhr
Frau,
nennt
gt.
chemische
ente
Interessen
sagt:
größere
Solange
tischen
ung?
Har@@
z,
erscheinen
pro@@
Ru@@
eres
Straßen@@
verdienen
Nehmen
benutzen,
Ausdruck
Ameisen
Möglichkeiten,
9
Ohne
letztendlich
Kräfte
Licht@@
verbreitet
Ba@@
rau@@
vor.
Systeme
Intelligenz
Atom@@
vergessen
est@@
%.
Tausenden
Sache.
steigen
Risiken
17@@
Tat,
Praxis
Wichtigste
entlang
gew@@
gab,
Kampf
reicht
erinnert
gefangen
Augen@@
lose
ker
Affen
ität
Lage,
führ@@
heben
ce
Bedürfnisse
[@@
Vorfahren
sor@@
Farben
Ton
ging,
denken.
z.
ing,
überleben
Au@@
gs
erfunden
erhebliche
Weisheit
Klimawandel
Ansichten
fen@@
DNA-@@
Sicherheits@@
essen,
Englisch
eh@@
verhindern,
natürlichen
Bewegungen
wi@@
genießen
k,
schen,
City
Markt@@
College
50-@@
,@@
könnte.
besseren
stell@@
ran@@
gezeigt,
Wald
men,
Objekte
Medizin
ur
tiges
Fällen
mehr.
Loch
Außen@@
Häuser
junger
ten?
Hast
Stimmen
erin
tierte
möchten
pa@@
iz@@
cke
danach
Per@@
schreiben.
1970er
bieten
frage
Wirtschafts@@
ing-@@
Neu@@
näher
London
at
ziehen.
sch,
schaute
roten
bekommen,
uns.
tz@@
erkannte,
entschied
falsche
modell
det.
hoffen
weißen
mer
wählen,
Aspekte
Hintergrund
ß@@
hr@@
Gebieten
nahmen
Jahrhunderts
Kan@@
Anwendung
interessant.
gelöst
Mor@@
zeichnen
th@@
ziehen,
kl@@
Buch@@
betrachten.
positive
verfolgen
Knochen
Groß@@
verbessert
aufge@@
lieben
Kur@@
unterstützen
–
ären
treten
anfangen
Bericht
Geschäft
Babys
i,
Geld,
Bet@@
for@@
Leidenschaft
laden
Dank.
einzigen
kar@@
end.
ip@@
Da@@
tiert,
nutzen.
sicherzustellen,
kaufen.
ier
Waffen
are
verb@@
Gehen
Institutionen
unterscheiden
genommen
"Die
vorstellen.
Moment,
beweisen,
Vorteil
bereich
Einsatz
sch.
Bereiche
fertig
Prinzipien
ons
ung"
Individuen
warten
zi@@
Inspiration
digitale
Fenster
würdest
nehmen.
Qualität
machen?
Hund
dorthin
ic@@
kosten
visuelle
Weile
Milliarde
sammeln,
wodurch
arbeitete
15-@@
System,
kor@@
rote
sagten,
gestellt
machten
enthält
zog
fer@@
solches
benutzte
zeigte
verbinden,
Zunächst
Junge
Autismus
gewonnen
fallen
Aufgrund
lesen,
Lehr@@
win@@
verwendet.
Funktionen
zwanzigsten
So@@
Mitglieder
ger,
Wei@@
or,
Osten
chen.
Gemälde
erklären.
Sommer
verwandeln
Elemente
Normalerweise
Karten
stellten
ma
19@@
dauerte
Afghanistan
unbedingt
besondere
grüne
entdecken,
Schmerzen
nationale
to
Kern
versuche
ich@@
Po@@
Richard
Mehrheit
ia
Komponenten
mel@@
Bank@@
Feld
Schlüssel@@
komm@@
tieren.
Debatte
te?
Herstellung
Effekt
Hoffnung,
nahe
unternehmen
k.
da.
hen
Fisch@@
Fakten
produzieren
fe
stärker
dessen
Gesamt@@
wobei
Träume
darum
biologischen
okay,
behandelt
eindeutig
Ju@@
',
Eis
Telefon@@
Wind
r
Fahr@@
Ak@@
tiert
entweder
Stelle
sen,
Familien@@
me@@
Sinne
senden
80%
absolut
weibliche
hergestellt
entdecken
Klassenzimmer
enten
teilnehmen
Angst,
gegenseitig
bewegt
bewegen.
Grenze
gegangen
sind?
willst,
Natur@@
Vielfalt
funktionieren
blauen
gaben
grünen
el.
erstellen
25
Biologie
Con@@
er?
en!
entdeckte
schaft
5
Schicht
gehe
Frieden
woher
produziert
benötigen
Rest
Or@@
warten,
elektronische
Zell@@
Zivilisation
Auge
verbrachte
Kilometer
bezieht
kümmern
hab@@
Sozial@@
Medien@@
eins
Spaß
fördern
ehr@@
form
künstliche
genetische
unzählige
besch@@
Universität
tragen.
begonnen,
übertragen
Geheimnis
'.
Partner
ann@@
Wahl@@
Du@@
schw@@
"-@@
reichen
letzter
Zelle
be.
entwickelt.
Freude
repräsentiert
Identität
öffnen
ierter
tern.
wohin
po@@
fragen:
verkauft
Symptome
ex@@
Sonnen@@
Danke,
Br@@
Partei
Bill
Fische
gekommen
gef@@
benutze
Erfindung
gemeinsamen
Methode,
Beispiel.
jährigen
zen@@
Damen
kenne
arbeitet
et
verrückt
zeit@@
Aussehen
miss@@
mehreren
Fernseh@@
Zeitpunkt
beeinflusst
heutige
Investitionen
schwierige
We@@
dabei
Mund
enn@@
Wahrnehmung
darunter
bin@@
!"
Fast
Tisch
100-@@
Bu@@
hält
äre
Hu@@
jedoch,
Kindheit
rief
Sex
stehen.
ill@@
X@@
Fernsehen
gewinnen
Do@@
Kind,
te:
sage,
Hoch@@
co@@
Chance
spezifische
ate
For@@
reich
reden.
Nahen
kommt.
freue
schützen
Konzepte
Jahr,
verlassen.
sten,
Papier@@
Geräusch
inn@@
sau@@
Einstellung
anders.
alleine
Moleküle
14@@
normalen
rä@@
gebe
reden,
ien.
essen.
bekommen.
ales
Stadt,
verbringen
Aufgaben
sein@@
Box
Krebs@@
Materie
ernst
setzen,
det,
Risiko
Gu@@
geschickt
verbunden.
Begriff
Wird
Männern
hei@@
erk@@
wa@@
10@@
Holz@@
Sterne
Inneren
ms
seh@@
Mitglied
s?
Großmutter
echten
bel@@
Signale
stammt
Lu@@
fe@@
Tatsache,
verstanden
stolz
Komplexität
Todes@@
Energie,
morgen
tolle
et.
zellen
ck,
wahr@@
ierenden
tiefer
krank
lau@@
kte
d-@@
ältere
alle.
bewegen,
vieler
Test
verbessern,
größeren
Ex@@
Modelle
jemandem
Lied
erste,
Auto@@
Vision
kan@@
Nutzung
Schutz
Weltraum
end,
selten
60
isten
wären
Baby
mach@@
Internet@@
Anteil
nen,
weder
geändert
ass@@
15@@
kt,
Wor@@
iertes
interessiert,
schrei@@
S
ert.
abge@@
ion@@
sehe,
onen
ebenfalls
Sind
90%
ativen
Gesetze
Viren
entwerfen
20%
mat@@
ton
genden
gelesen
Che@@
entwerfen,
Verbesserung
hinter@@
mischen
Keine
ungsp@@
recht
legen,
lasst
Änderungen
Überleben
unterscheidet
Wer@@
Regierungen
du?
hast.
Blut
erwähnte
ator
arbeit
Armen
zusammenarbeiten,
jederzeit
kontinuierlich
antwortete:
ative
(Beifall)
Gesundheit@@
bt
entwickelten
1950er
Drogen@@
weißt,
Motivation
Gründe,
sen.
Volk
Su@@
be,
bar.
erwartet
Aktion
Grundsätzlich
getan,
ähnlichen
elf
]
Etwa
verbinden.
Stil
Bruder
E-Mail
Mann,
Interaktion
Folgen
Krise
ierende
ba@@
Code
wollte,
automatisch
tritt
unteren
Wasser,
genannten
Sekunde
Film@@
bisher
alt,
versuchte
grundsätzlich
USA
Raum,
Aussage
verkaufen
folgen
Gegensatz
funktion@@
gte
Ereignisse
form@@
können?
Status
Japan
Haufen
existieren
kannst,
moralischen
Erforschung
kaum
Kerl
is,
teil
reagieren
angewendet
star@@
perfekt
drehen
industrie
Werkzeug
16@@
Par@@
vers@@
genauer
blaue
Erde,
Überzeugungen
s"
Yuan
vorwärts
versucht
ers@@
one
At@@
Facebook
dies@@
wen@@
nützlich
Berg
scher
50%
Ber@@
tat
nah
Professor
Medikament
grundlegenden
Feuer
weiße
tion@@
chinesische
Dinosaurier
Erd@@
Minute
Denk@@
Problemen
unterschiedlichen
Reichtum
Arbeit@@
10
kurzem
erreicht,
Staaten.
mir.
West@@
verbringen,
Produktions@@
5%
sogenannte
Essenz
"Nein,
ion
gel
nen.
sollen,
ete,
Video@@
zusammenzu@@
Center
angefangen,
Erwartungen
Gefahr
Ne@@
Systems
Klima@@
tiert.
spezielle
Wesentlichen
Nachrichten@@
erforschen
aren
bezeichnet
ktion@@
Frage:
schlechten
gewöhnlichen
the
gefunden,
anders,
Patient
Regierungs@@
Hel@@
Hin@@
Doch
gefunden.
Baum
nachts
Tier
fer
c
genannt.
ließ
Gesellschaft,
schließen
jährige
enz
El@@
Inhalte
Gibt
tieren,
einzigartigen
retten
Handlungen
en",
plan@@
erkennen.
Washington
Schlussfolgerung
magische
sicher@@
ung:
bar,
Gleichgewicht
100000
Sen@@
Sand@@
leider
wirklich.
Aspekten
ant@@
lö@@
gearbeitet
schen.
methode
Gerechtigkeit
Bisher
Inter@@
Erde.
Arm
technologische
mussten
ette
Computern
Tests
reduzieren
zusätzliche
Mädchen,
beschloss
tr@@
drehte
starb
gu@@
studieren.
gehören
Char@@
wissen.
Perspektiven
bestehen
untersuchen
konzentriert
statt
5000
Diskussion
moralische
dachten
erhöhen
der.
Such@@
ett@@
Wann
bleibt
Industrie
davor
sich.
Werbung
1,@@
er"
digitalen
inspiriert
Korruption
tig.
Einzel@@
genutzt
Hat
mil@@
setzen.
bu@@
konnten.
andere,
heit@@
deshalb
perfekte
stimmt
Twitter
heit.
aufgewachsen
erscheinen,
geschichte
Probleme,
Drogen
Dienstleistungen
ret@@
Führung
afrikanischen
),
%,
erforschen,
erstes
ner
war's.
setzte
ft.
bietet
trotzdem
dreißig
t-@@
verändern,
benötigt
begannen,
sches
gestern
Nor@@
produ@@
Am@@
cken,
karte
Geheimnisse
ländlichen
armen
grün@@
Egal,
Projekt,
Solar@@
mar@@
wussten
legte
leid,
Kein
tere
Sc@@
messen,
fil@@
spiele
ierte,
offen
forschung
kraft
Ball@@
gewissem
B
vorbei@@
se.
sogenannten
Idee.
dische
ch,
Methoden,
Vorfall
gewinnen,
Lin@@
Her@@
Physik
lichste
technologie
rück@@
glücklich,
erreich@@
Punkt,
Flug@@
technologischen
ek@@
Ri@@
"The
erschaffen
Schutz@@
denkst
zahlen
Ebenso
lesen.
gespielt
ort
Westen
läuft
en?"
wiederholt
groß@@
hervor@@
weiter,
zen,
2000
Mal@@
Galaxien
Kl@@
chen@@
Park
brauchen.
älter
inneren
Analyse
Mil@@
komplexer
setz@@
toll
bit@@
ca.
stra@@
ität,
weshalb
ide@@
kämpfen
Symbol
nachhaltige
bereit@@
untersuchen,
wütend
aten
Worten
barkeit
werfen,
isch.
ges
täglich
Kohlendioxid
trat
entfernt,
kulturelle
kurze
Allgemeinen
Abschluss
oft,
methoden
aussieht.
sich@@
Infrastruktur
mus@@
großartig.
"Oh
Rahmen
beispielsweise
genug,
ur,
13@@
anz
Stadt@@
Tra@@
legen.
Mit@@
y-@@
okay?
ebenso
Schwester
Strom@@
Plattform
leg@@
eu@@
ppen
Ball
struktur
ber,
Kreaturen
ihnen.
Rechte
internationalen
erreicht.
Brücke
funktioniert.
Zeiten
Beine
Bett
Laden
pass@@
25@@
George
retten.
betreten
infiziert
erscheint
Chinas
Diagramm
möglichen
beeinflussen
Lebensdauer
Gewebe
Typ
wür@@
Wunder
ste.
losen
Gehirn,
Kurz
unterschiedlich
Schaden
gern
soll@@
mess@@
gebiet
verbracht,
sprach@@
Schiff
h,
Drei
nationalen
10%
Aktionen
Erinnerungen
ges@@
denkt,
mp@@
Ausstellung
her,
World
schützen.
zukünftigen
bilden.
verursachen
internationale
unterstützen,
Irak
zentrum
fe,
besser,
werde.
Sport@@
Art,
Seite,
letztlich
y:
deten
schau@@
Mangel
stecken
solltest
Brasilien
Mittel@@
Füße
schätzen
führt,
reiche
Bemühungen
benötigen,
40-@@
21sten
kontrollieren.
Vögel
steigt
/@@
mögen,
krie@@
Hinsicht
blieb
fragte:
stammen
hat@@
Sprachen
Entwicklungsländern
Flugzeuge
Zeichen
Ku@@
Strukturen
z.B.
Spezies
werk@@
Paul
produzieren.
Alles,
Magazin
einmal:
Siehst
sammeln.
Berg@@
Sauerstoff
"Nun,
fördern.
hol@@
führt.
pol@@
400
Reaktionen
wächst
Bio@@
Ausrüstung
passieren,
beschlossen
ihn,
liegen
Gründen
erstellen.
Roboter@@
laut
betrachtet
hör@@
häufig
.'
s:
formen
t"
maschine
f.
Untersuchung
worüber
elektrische
cks
lung
Anwendungen
ar,
erhielten
verwandeln.
schauen,
Denkweise
Spieler
kostet
gende
man,
Prozent
tut,
Street
ve
Körper,
Haltung
diskutieren.
fragten
bil@@
änder@@
in.
dungen
Dort
schwere
Krieges
Malaria
sexuelle
lichsten
san@@
eln.
Politiker
schlug
imm@@
denn,
seltsam
National@@
Schimpansen
Mexiko
Organ@@
Gar@@
Freunde,
Geh@@
interessanter
Flasche
Chancen
Angeles
entdecken.
as,
markt
halte
benutzt
Andere
negative
sprachen
ed@@
Plastik@@
doppelt
westliche
Far@@
bestimmt
stand@@
durchgeführt,
ven@@
rich@@
Mc@@
entwickelte
Kurs
No@@
Times
tik@@
entdeckten
kennen.
draußen
produzieren,
Militär@@
eller
Werk
Bürger@@
sei@@
fin@@
akzeptieren
ität.
-jährige
ment@@
los@@
elektronischen
ati@@
geführt
Li@@
Heimatstadt
Fleisch
Schicksal
Information
anderen,
Fabrik
im@@
schule
Sonnenlicht
ationen,
Publikum:
würden.
Fläche
äl@@
kulturellen
deutet
Sta@@
kraft@@
C
Wahrscheinlichkeit
führten
Situation,
praktische
inter@@
öffentlich
cken.
brach
Bedrohung
tierten
Mutter,
männliche
Dar@@
Patienten,
dreht
verhalten
eri@@
Dach
dra@@
Vorstellungskraft
einfaches
verl@@
Nachbarn
normale
ologen
AIDS-@@
beginnen.
beobachten.
0@@
siehst
Musik,
positiven
mittel
Generationen
oberen
id@@
Konferenz
il
Pe@@
iel@@
genetischen
linie
Wind@@
reg@@
ktions@@
verfolgen.
will.
psychische
reisen
gesammelt
umgeben
wirkliche
nutz@@
Zahn@@
begonnen
volle
Mehr
sterben,
fliegen,
Mond
Raum@@
Kulturen
Anderson:
herum@@
Änderung
Bild,
ks
fahren.
Schuhe
Gi@@
Elektro@@
tel@@
vorne
anderen.
isierung
Mess@@
Talente
System@@
Schatten
ste@@
Glas
komplex
tsch@@
Ton@@
innere
vorsichtig
gesprochen
els
hoher
heraus
stieg
komme
afrikanische
notwendig
behandeln.
alismus
"Weißt
Ach@@
Hy@@
Technik
Weltbevölkerung
Al
schafft
Land.
siehst,
Ja@@
men.
Kaffee
nach.
Länder,
isch,
ander@@
Harvard
Danke!
neu@@
welcher
brechen
alität
Gegen@@
Kommunikations@@
wollte.
normal
unterstützen.
Industrie@@
Physi@@
enten,
Jo@@
iere,
eil@@
Kirche
Te@@
schon,
arme
Kinder.
Effizienz
3-@@
gruppe
Min@@
unbe@@
Israel
sinn@@
Herren,
folgende
aus?
tischer
5-@@
Linien
Ad@@
ger.
Kriegs@@
Text
and,
Restaurant
exist@@
gebracht,
erzählt
test
18-@@
Ehe
Indien,
fällt
Satelliten
angesehen
Ereignis
Seh@@
hand@@
it
fall
Erkrankungen
reich@@
machbar
besseres
hilft
stoffe
ord@@
Schlaf
vergessen,
bitten,
gut@@
spreche,
Unternehmens
Buches
meiste
erzeugen
Fisch
fiel
dreimal
Süd@@
Afrikas
ener
ris@@
reale
ften
che
gegründet
Forsch@@
los,
bringt,
Projekts
Pat@@
entdeckt,
gs@@
wachsen.
kurzen
Ja.
getrennt
Les@@
fördern,
Abschließend
Standard@@
Standards
Stärke
11@@
Teil@@
vierte
ler@@
fi@@
son
Paar
iv@@
höhere
arten
Leben@@
hat?
Mat@@
Landwirtschaft
prä@@
alles.
Thema,
199@@
kehrte
Armee
brachten
notwendig,
Designs
Feedback
erung
ast@@
gerät
Organe
Kreis
seltsamen
leit@@
Ebenen
Wieder@@
Lasst
früh
lernte
speziellen
kt.
äußerst
seien
starben
uch@@
schutz@@
bleiben,
Finger
"Sie
studiert
gar
wär@@
€
Plan@@
son@@
älteren
mark@@
fre@@
stes
lichem
Damit
Francisco
wusste,
ver
Ursache
ungssystem
Erst
sterben.
gewinnen.
schwieriger
Wasser.
vorzustellen,
Buchstaben
trägt
Brot
min@@
ändert
°
Ökosystem
Erwachsene
ssystem
stre@@
feld
testen,
vi@@
mag,
ud@@
stehe
spreche
50000
religiösen
Teams
Instrument
ungsprozess
Sk@@
verbreiten
des,
besuchte
1-@@
schlechter
Innen@@
zuzu@@
Zweifel
ing.
Afrika,
Wandel
gend
Studium
elles
Schlaf@@
geschwindigkeit
Benutzer
198@@
0
hi@@
Wüste
beweg@@
gn@@
Mütter
ick@@
passiert?
emotionale
mmer
Hunde
stoff@@
denken:
Kor@@
Verhaltens@@
langfristige
erte
lebt,
beschreiben,
verlieren,
Glück@@
Zweiten
Nord@@
berühmte
Gericht
Tanz@@
Letztes
ens,
lebte
überzeugen,
tig,
Frei@@
mü@@
erstaunlich.
herzustellen.
NASA
gebracht.
fte
mal.
Tur@@
Sprache,
faszin@@
Blumen
är
Verkehrs@@
licht
Komp@@
höchste
Ziel@@
gleich@@
rech@@
Zeitung
gebildet
weisen
fünf@@
vorherigen
dich@@
technische
ga@@
erstellt
Rand
wir.
enthalten
erklärt
Kohlenstoff@@
verhindern
Not@@
na@@
einf@@
Vorschlag
entfernt.
land,
"Ja,
solch
her.
passieren.
Fest@@
fähigkeit
Mir
tigkeit
höchsten
veränderte
Über
pr@@
wichtiges
Genom
Meiner
erleben,
messen
durch,
gesetz@@
beteiligt
hel@@
Park@@
lauf@@
ßen
Tag.
erlaubt
handelt,
ums
gedacht,
mor@@
is.
nicht?
Tonnen
wahren
bene
Fälle
aussieht,
Röntgen@@
manche
igen,
Netzwerke
iss@@
om
verloren.
gab.
Stammzellen
Poesie
nis
erwartet,
handeln
ant
kreative
2000-@@
funktioniert,
Meinungen
kommunizieren,
Geschichten,
y"
arbeit@@
schreckliche
Schw@@
Nutz@@
Wieder
Kapit@@
stu@@
Pläne
investieren,
denkt
zeichnen,
ent.
springen
Problems
Stern@@
Oh
Norden
verschwinden
Küste
schlagen
10-@@
vermeiden,
Bein
oh@@
durch.
Australien
Menschen@@
Verbraucher
Nachfrage
Konzept,
welches
natürlich,
Erstens,
Technologie.
Gemeinde
fra@@
Hinter@@
geben?
erten
Ideen,
kennt
nicht@@
steh@@
wunder@@
Mr.
schätze,
soll.
Operationen
Met@@
lebenden
Tri@@
150
Wa@@
Entfernung
on-@@
hoch.
schützen,
The
Gegenteil
großartig
4-@@
ansieht,
investieren
erwarten,
entscheidend
Kapitel
vorher@@
Erfahrung,
Dis@@
Song
Vogel@@
verletzt
Gesichter
leb@@
erfahren
Island
Boden@@
dies,
kostenlos
richtig.
Kindes
halb
Bon@@
Minuten,
Regen@@
Ess@@
sh@@
ausgesetzt
erfordert,
Mensch,
Tab@@
ähn@@
Schritte
bau
machst
getötet
reduzieren.
Ger@@
schwe@@
klinische
Sam@@
Wild@@
Interessanterweise
fort@@
ktion,
ben?
ck.
bewegung
überrascht,
Fil@@
sehen?
Kin@@
"Hey,
ment
iti@@
Verhältnis
Schule,
linke
Seele
zunehmend
britischen
Prozesses
weg.
stand,
Intuition
teste
wir@@
Umgebungen
derselben
Post@@
Computer,
spät
zerstört
Ökonomen
je@@
verändert,
Konflikte
enorme
sitzen,
herausfinden,
Gedicht
Brief
wählen.
benutzt,
beschäftigt
3%
gekauft
Beobachtung
vorteilhaft
Fokus
wor@@
Fragen,
welt
Signal
spiel
Sauerstoff@@
Erwärmung
tiere
Höhepunkt
Stimmt's?
Phase
Information@@
Dreh@@
Rau@@
str@@
interagieren
behandeln,
Förderung
Anstieg
Führungskräfte
fliegen.
kontrollieren,
oo@@
ologe
Personal
ik.
test,
Gebiete
allgemeine
ling
wuchs
Freundin
falsch.
Ur@@
gefällt
dischen
Zuhause
Jahrzehnten
herausgefunden,
Fol@@
indischen
verfolgen,
bilden,
bemerkt,
buch
Landschaft
Gottes
Zähne
eit@@
alisierung
Übrigens,
dauern,
Mark@@
genügend
Lachen
egal,
st?
schätzen,
o-@@
wollten
beziehen
).
mehr@@
Beste
herzustellen,
Institute
beschrieben
Versuchen
Steuer@@
30%
geschaffen,
"W@@
Band
sozialer
Gipfel
Respekt
land@@
ppe
Jahre.
schönes
ang
bekam
Gel@@
freie
hörte,
gener@@
scheinbar
Magie
nachzudenken.
aufgeregt
geschehen
Tradition
Star@@
bleiben.
Steve
fern@@
mathematische
beh@@
Zwei@@
Rob@@
durchgeführt.
har@@
bares
Große
Produkt@@
bedeut@@
Comics
ellen,
Son@@
lü@@
sto@@
tu@@
Arbeitsplätze
Schülern
Klein@@
finanz@@
Betrieb
ert,
Mi@@
fu@@
Lesen
Schreiben
durchführen
Cent
städtischen
spüren,
aussieht
Konflikt
laufen,
besonderen
ausgezeichnete
Erinnerung
selben
Woher
Stufe
lag
Waren
me,
gezogen
spiegelt
Win@@
Folie
Elefanten
Tiere,
ja@@
0,@@
kombiniert
ac@@
Hal@@
us.
Wissenschaftlern
Licht,
Unternehmer
erneut
Arbeiter
Machen
ens.
Person@@
anwenden
Lücke
kla@@
forsch@@
mische
ultimative
60-@@
Teilnahme
jemand,
gehen?
Anti-@@
Rückkehr
Yo@@
Durch@@
Bildern
ies
Hand.
dich,
steht,
davon.
Sag
Sie@@
Insel
bt,
Wil@@
kel@@
falschen
gegeben,
General
Jeden
gelegt
Eindruck
gefolgt
stan@@
fal@@
40%
kli@@
sam@@
mein@@
zurückkehren
sc@@
sagen?
lautet:
Gr@@
visuellen
197@@
muster
König
ch.
Übrigens
far@@
geboren,
Einheit
zentr@@
punkt
Glas@@
Umgang
Geld@@
ent,
gegeben.
schlimmer
Techniken
gang
ruhig
Notwendigkeit
Lebens,
Iran
Top-@@
Kalifornien
Charles
nieder@@
ihm,
benutzen.
tat,
Ursprung
verdienen,
Herr
Gelegenheit,
1%
lieber
langsamer
welchen
flie@@
reduzieren,
offene
Gleich@@
Kraft,
:@@
Sh@@
ed
3,
Chaos
Bal@@
hän@@
Druck@@
Globalisierung
demokratischen
D
eng@@
gewinn@@
ktive
Zugang
anhand
gewann
Tut
Verhaltensweisen
Seitdem
Wirtschaft@@
zogen
schicken
Arbeit.
Gab@@
ure
leidenschaftlich
irgendwo
neigen
Psych@@
vermeiden
dete
berühr@@
sicherstellen,
sag@@
zwar
Entstehung
erforschen.
Ide@@
ismus,
Kultur@@
Stein@@
chinesischen
ließen
chte
demokratische
tern@@
Mu@@
andere.
Waffe
etten
Motor
Löcher
lagen
reduziert
Dingen,
Helden
Ober@@
Flü@@
Science
Verbreitung
dachte:
sicherlich
kaufte
mme
berühmten
kommunizieren.
Boston
Prozess@@
Thomas
Me@@
schie@@
erlaubt,
as.
sparen
Basis
herstellen
lass@@
schwierig.
dungs@@
berechnen
Innovationen
spar@@
ermutigen,
Süden
kenn@@
2-@@
ten:
lieb@@
Frage.
ler,
Motor@@
Substanzen
erstaunlich
chemischen
Ozean@@
fehlt
Unterricht
Klima
auch.
irgendwelche
Open
platziert
scht
Garten
untersuchen.
branche
spielte
70%
Umfrage
Werden
Op@@
Infolgedessen
Kopf@@
Persönlichkeit
n?
besessen
denen,
10000@@
beg@@
las
Mut
setzt
toll,
Mission
Male
ce@@
loser
zo@@
istische
Architekten
Programme
Apple
privaten
tun@@
Stadium
Illusion
Kredit@@
Schu@@
vergleichen,
leiden
istischen
Na@@
Durchschnitt
erwähnt,
2%
Sport
tions@@
igkeit
Hunderten
Slums
erschien
ersetzen
gründete
Seite.
elt
messen.
Schaffung
Hören
danke
Gegend
erfahren,
'Ich
lern@@
Nieder@@
ku@@
ech@@
grundlegend
männlichen
Kontroll@@
Momente
Verlust
fälle
entwerfen.
Regen
menschliches
physischen
Netz@@
Südafrika
Fantasie
schla@@
1,
Katastrophe
Brüder
net
Wald@@
dachten,
tlich
anischen
unabhängige
Den@@
religiöse
Wälder
fall@@
Viertel
fällen
brauchst
CA:
reise
trug
ss,
Fe@@
Geben
tatsächliche
ven
Verteilung
Anwesenden
psych@@
3D-@@
ank@@
hinterlassen
ktion.
schei@@
Dollar,
Betracht
gehe,
Teilnehmer
ationen.
Geräusche
ang@@
bestehenden
was?
Botschaft
überwiegende
2,@@
Sur@@
genannt,
Zellen,
organis@@
tive
groß,
Jungs
intelligente
Geschenk
teure
verletz@@
fol@@
ut
besuchen
sel@@
voneinander
Prozess,
eure
schneiden
Tre@@
Stu@@
met@@
100%
psychischen
liegt,
Wellen
kten
entstanden
Temperatur@@
entfernen
kämpfen,
tisches
Schei@@
Lie@@
heil@@
zig
entsprechende
ausgeben,
Deutschland
gebaut,
Gener@@
tä@@
oll@@
olo@@
überleben.
entscheiden
tö@@
Büchern
leichter
geln
ssen.
Eier
Pal@@
Cha@@
Entdeckungen
gemacht?
entdeckt.
Hei@@
versuchte,
Militär
ßen.
bist.
kannst.
Zug
San@@
produktion
verkaufen.
Stuhl
t!
Nachkommen
T
außergewöhnliche
sche,
Kat@@
Liebe,
entscheidende
Foto,
Pla@@
flo@@
1000-@@
ta
legt
etz@@
ik,
existieren,
durchschnittlich
Rücken
glücklicher
Fall.
Null
t;
verglichen
klare
"Der
offenen
isieren
Dan@@
fingen
Zimmer
akzeptieren,
ör@@
80
Spiegel
Adam
sie@@
lat@@
versteckt
Thema.
ters
Anstrengungen
schwierigen
Metall@@
Management@@
Wirk@@
durchführen,
schnell,
Galaxie
ologie,
indische
ungss@@
jetzt.
Ansicht
proble@@
Strategie
0,
ub@@
Design,
Internet,
8-@@
lu@@
Farb@@
yn@@
halbe
Ziel,
Sal@@
kümmern,
dort,
gestellt,
flog
weiblichen
Kenia
gie@@
Gras
Bewohner
gestellt.
handel@@
geboren.
außen
che@@
alle@@
fa@@
Mutter@@
neuesten
Jahr@@
Familie,
Muskeln
wichtiger,
erh@@
Wi@@
1000
gehst
te"
Ban@@
teilzunehmen,
fehl@@
Noten
gebaut.
drücken
präsentieren
viele,
Ruf
gung
dir,
rede
teile
befinden,
stand.
hinzufügen,
Arme
kal@@
ort@@
traurig
spr@@
Sho@@
heits@@
beginnt,
Periode
mächtige
ings
Beispiel:
Diagnose
hätte,
Studenten,
Don@@
überzeugt,
Bank
zweimal
kann?
klin@@
Schla@@
Samen
BIP
Ohren
ativ@@
auss@@
enst@@
Verbrechen
domin@@
ssen,
zug
tiefe
James
eigen@@
vergleichen
denk@@
Technologie@@
Mikroorganismen
nis.
werfen.
ron@@
krei@@
Fo@@
keit.
versteht
jene
beschreiben
körperliche
geschrieben.
anpassen
Wissenschaftler,
Robert
gan@@
mögliche
Radio@@
Ca@@
blind
bung
itäts@@
Training
erkannt
merk@@
tlichen
rische
Spe@@
E-Mails
Sub@@
Gebäudes
freien
Mach@@
dauern
erkenn@@
schlä@@
überraschend
los.
Wolken
liefern
spezifischen
i.
TV-@@
Raumschiff
enz,
lich?
Gen
Mäuse
fähigkeiten
konzentrieren.
entwickel@@
erzielen
ell,
entsteht
Kultur,
Zeitalter
durchzuführen.
cker
herum,
Ä@@
band
findet
län@@
2,
verbunden,
Valley
Natürlich,
erscheinen.
kam.
konnten,
Lebens.
Müll@@
kontrolliert
Christ@@
aussehen,
Toilette
magischen
Schäden
Regierung,
Impfstoffe
überrasch@@
nachdenken
ken,
Geschäfte
Informationen.
Jetzt,
%
laufen.
nachgedacht,
hen.
spann@@
flu@@
Komm
Bist
entsprechend
ologische
zieht
historischen
einzigartig
keiner
Gemeinschaften
Rate
saßen
wen
bedeutet.
Gold@@
hört
psychologische
schweren
Mem@@
Erdbeben
unbekannte
Daten.
Zucker
private
Errungenschaften
wird?
Philosophie
go@@
tionen
dienen
Schwestern
ley
techn@@
unterstützt
gruppen
negativen
schaft.
wasser@@
geschah,
könn@@
Scha@@
Col@@
berechnen,
Pre@@
China,
niedriger
our@@
ausdrücken
jährlich
schwimmen
probleme
zei@@
Sammlung
Männer,
Sex@@
anz@@
Anstatt
verbindet
Gerade
ermöglichen
25%
Kurve
überprüfen
Foundation
zeichnen.
Ingenieur@@
benen
Dat@@
such@@
Beitrag
seid
Anruf
schwer,
falls
besitzen
Research
Aut@@
Algorithmen
niedrigen
mati@@
Schreib@@
Rich@@
auftreten
Wikipedia
verdienen.
Belohnungen
Zeitungen
,5
Proben
T-@@
sten.
d.h.
mm.
Roboter,
elte
Widerstand
sä@@
wur@@
Ordnung
ankam,
Fähigkeiten,
teuer
integrieren
führung
25-@@
neten
Rock@@
Literatur
ration@@
tau@@
mmen
fallen,
dann,
verwandeln,
Instrumente
jeder,
trafen
v
mittel@@
art
soll,
mei@@
eg@@
effektive
südlichen
gerettet
Indem
barer
schlafen
lehr@@
Kontinent
erschreck@@
unmöglich,
krank@@
entdeck@@
arm
Ac@@
umzu@@
enz.
kreativen
un
sucht
Russland
habt
stimmt,
Michael
verlieren.
Hör@@
Branche
druck@@
Einstein
Tu@@
Vorurteile
allem,
ichten
ruh@@
morgens
Yorker
gemeinnützige
Rech@@
gesprochen,
töten
Neur@@
Golf
historische
wunderbaren
Ker@@
196@@
verwendeten
geschieht
raus@@
öffnen,
komm
Maßstab
A-@@
anische
fs
rischen
Personen,
Januar
ard
arbeiter
achten,
Wahrscheinlichkeit,
ökologische
4,
Tasche
steigen,
Charakter
Kindern,
geschrieben,
lebe
design@@
dagegen
großartig,
su@@
darüber.
dunklen
Modell@@
brenn@@
erfüllen
fisch@@
tiefen
Todesfälle
Männ@@
lebten
Hause.
fr@@
tin@@
steigen.
könnten.
Grün@@
Zukunft.
Kongress
gesunde
Innerhalb
Ingenieure
Deine
lief
Dialog
Chemikalien
nete
entspricht.
Brau@@
innovative
Privatsphäre
begeistert
Angst.
Zusammen@@
zurückkehren.
trinken
drin@@
dar.
Leistungen
kur@@
arbeitet,
Hinweise
reicher
Element
versuche,
tion,
s-@@
Trans@@
Willst
existieren.
brechen.
Orte,
umgehen
irgendeinem
Schwer@@
besucht
Küche
halb@@
Geschmack
lach@@
vorgestellt
ün@@
stei@@
nehme
ze@@
Parteien
Tools
lebens@@
existiert,
erweitern
zurückkehren,
hoch,
planen,
alität,
braucht,
emotionalen
Fernseher
Ort.
Pri@@
haben:
folgen,
gesund
2007
ion.
dern,
ers,
les
Microsoft
Bas@@
Umfang
Stahl@@
00@@
atoren
Ernährung
bedeckt
Tor@@
Datenbank
Zukunft,
Dunkle
Websites
Mücken
Tro@@
tatsächlichen
bel
werke
kü@@
könntest
Mitarbeitern
spüren
en".
Vorschriften
vollen
endste
durchzuführen,
ra
Hotel
tel
verwandelt
eine,
sprü@@
den:
tue,
betreten,
Gewinn@@
schließen,
bestimmt,
Gegenwart
Einfach
frühe
Pf@@
aufhören
vorbei
Ecken
leichte
Stanford
Tanz
geteilt
weis@@
handelt.
Kenn@@
50-Jahren
Community
Nase
Vater,
Holz
niedrig
gegenwärtigen
Natur,
spricht
oper@@
ity
statt@@
dadurch
tägliche
Pap@@
zerstör@@
kommenden
scha@@
Antibiotika
vollständige
atmen
Geruch
interessanten
ic
Jahr.
virtuellen
vierten
standen
unterscheiden,
Darwin
interessantes
Gol@@
richtung
Berechnung
woll@@
Fliegen
201@@
Gesichts@@
Social
doo
Haare
Ländern,
Unterhaltung
mm,
bildung
gestalten
zusammenarbeiten
Jobs
überprüfen,
ergebnisse
identifizieren,
tiv@@
veränder@@
bieten,
Gewinne
"Ver@@
verhindern.
kamen,
Fragmente
Bibel
ßen,
glaubt
Staat
bauten
Musiker
Buch,
folgen.
lä@@
genießen.
keit,
Dunkelheit
beachten
ken.
Jedenfalls
Tex@@
Wachstums@@
Weltraum@@
glücklich.
Medizin@@
beobachtet
verkaufen,
mittleren
Fahrer
ali@@
angewiesen
Winter
anfing,
super
besser.
Kurse
senden,
halt@@
Bur@@
Altern
ersch@@
gestorben
blin@@
offen@@
Mobiltelefone
klei@@
taten
TED@@
-B@@
stoff
dort.
24@@
Kluft
ha,
Fach@@
US
Moral
Wohlstand
Islam
train@@
verließ
Terrorismus
finanzielle
zweifellos
keit
Schwerkraft
Explosion
spannende
dliche
herum.
dieselbe
lieben,
Erwachsenen
laden,
Rückgang
steuern
Integration
erkunden
wahrscheinlich,
Müll
Haar@@
Universitäten
uren
schlage
die,
Analy@@
Charaktere
Baum@@
ses
denkst,
meist
ero@@
wander@@
Martin
ssp@@
verrückte
Fla@@
Wel@@
Hallo
kann@@
schickte
12@@
Symbole
aufbauen
chten
Dank,
Univers@@
On@@
.)
liegt.
Marke
HIV
töten.
begrenzt
diskutiert
Kraft@@
Internets
Wirtschaftswachstum
rin@@
YouTube
Maß
wach@@
Ste@@
kooper@@
20000
Vier@@
per
sitzt
Nummer
Energieverbrauch
bestimmtes
benutzten
Protein
zeichn@@
weise
fügen
lebendig
Journalisten
Achse
Wür@@
Rückseite
Nichts
Aufstieg
investiert
eingeladen,
Gehirn.
Ev@@
dreh@@
fel@@
Großvater
teilnehmen,
tion.
Zer@@
verstehe,
dieselben
Privat@@
Rhythmus
passieren?
gten
Räume
yp@@
existiert.
Rande
öl@@
gab@@
beantworten
gelegentlich
des.
gefähr@@
Wünsche
Agen@@
teil,
Zerstörung
handeln.
überzeu@@
Anforderungen
wechsel@@
get@@
umfasst
kognitive
fl@@
ts,
ierungs@@
ernsthaft
gelernt.
dern.
Gesellschaften
Diejenigen,
uch
Berechnungen
greifen
Beruf
großem
Bus@@
Bro@@
Sti@@
Merkmal
Ungleichheit
age
Bilder,
Schwanz
Trotzdem
Beim
Schuld
konstru@@
ergreifen,
Student
D-@@
Lektion
ähnlicher
entwicklung
größ@@
Eltern,
so:
Substanz
freuen
will@@
geholfen
toll.
setzten
itäten
entschieden
Geb@@
MIT
häufiger
Familie.
schaff@@
erlauben,
schuf
cht
"M@@
Wit@@
Freund,
Begeisterung
Einmal
Kauf
bro@@
vermitteln
sam
Rechts@@
Herausforderung,
Hindernisse
jemanden,
Epidemie
Sätze
ierte.
fahrt
American
Chicago
klein@@
funktionieren.
gebeten,
200-@@
nutzt
trotz
Golf@@
Bibliothek
Gebäude,
kombinieren
üch@@
physische
Schnittstelle
ws
gesunden
anstelle
Werk@@
Spuren
Bel@@
erleben.
Radi@@
Frauen@@
nannte
Stimm@@
Präsidenten
okay.
Auftreten
mischer
Dem@@
wirklichen
Glaube
hier@@
Go@@
Dach@@
Kal@@
Richter
Tiefe
Einführung
600
kämpfen.
einfachste
Wo@@
"H@@
erhöht
zufrieden
beseitigen
gestartet
nisse,
ungsin@@
klinischen
berührt
erzähl@@
wenden
beeinflussen.
Risiko@@
steck@@
kn@@
verwirr@@
Schauspieler
erwähnte,
Bö@@
Proje@@
Modus
Freund@@
singen
dung.
Aufzeichnungen
schu@@
überwinden
Lächeln
herauszu@@
16-@@
September
7-@@
tierung
Handel@@
%@@
erlebt.
Transport
Hausaufgaben
näh@@
bekannten
yl@@
Sand
werdet
aufgenommen.
-,
effektiver
Verlangen
Sei@@
000
wachsen,
Abendessen
Umfeld
vis@@
Schriftsteller
ett
ca
ierten,
Pflanze
Neben
fan@@
Dinosaurier@@
Länge
dreidimensionalen
Fern@@
flüss@@
tigt
ce,
werk
opti@@
legen@@
tliche
ihr,
Dra@@
ma,
iesen
re,
Heil@@
8,
kop@@
tro@@
spe@@
tigt.
erweise
Bru@@
Fein@@
wohn@@
langfristigen
planen
beu@@
äußeren
ie-@@
gek@@
tes,
Proteine
ül@@
See
bringt.
Standort
wel@@
Atem@@
aktiv@@
isiert
retten,
Nigeria
schien
Katze
Fre@@
Gute
gendes
Sogar
Ti@@
effizient
passierte
gelebt
ansehen.
äußere
problem
beschreiben.
Lebensqualität
sub@@
effizienter
Liebling@@
Transport@@
tre@@
Netz
tan@@
riesiges
aussehen.
unk@@
nis@@
Serie
viel@@
Tumor
Fettleibigkeit
kun@@
Führ@@
reibungslos
Computer.
Gegenstände
an:
Nein.
Zeich@@
Bevölkerungs@@
Höhle
Wesen
Mathematiker
fläche
zentralen
strahl@@
Q@@
rot@@
kombinieren,
Kanada
heiten
Ressourcen,
Büro@@
bild@@
Sau@@
heiten,
schätzen.
vernünftig
Hauses
experimentellen
beendet
worden
Wach@@
hängen
zusätzlichen
erzielen.
Sie.
laden.
ograph@@
Kopf,
Ausmaß
geschieht,
lichkeit,
gäbe
halben
unterstütz@@
hy@@
Vol@@
dringend
Erfindungen
Stre@@
sitz@@
verwirrt
Wärme
Schiff@@
Charme
cht@@
Ausbreitung
fache
ktionen
karten
Geheim@@
inspirieren
verlor
Schü@@
x,
prozess
h.
typische
Dann,
Köpfen
Vi@@
App@@
But@@
entstehen
han@@
Kli@@
Sha@@
projekt
bild
nen@@
oi@@
Aufgabe,
niemanden
steht.
Brustkrebs
Pflanzen@@
gewebe
besuchen,
ismus.
Mechanismus
Rea@@
Übertragung
autor@@
Wahlen
Strand
Organismus
Gest@@
quelle
herunter@@
Gehirne
lust@@
Mittagessen
struktur@@
König@@
maß@@
kommerzielle
Th@@
I
kurzer
versehentlich
Abfall
Schne@@
ies@@
Fahrrad@@
folgt
zugeben,
Demonstration
weg,
genommen,
Pol@@
stimmt.
Sorge,
kontinuierliche
auftreten,
innov@@
Live-@@
erscheint,
wein@@
Aktiv@@
schlu@@
Lebensmitteln
sprech@@
repräsentieren
Ter@@
Stell
zusammenzuarbeiten,
jenseits
kts
ress@@
froh,
kümmern.
Gei@@
tigte
festen
brauch@@
raten
Gespräche
herr@@
Abteilung
Besonders
Psychologie
Egal
Gemeinden
stimme
tauchen
starr@@
schte
Fal@@
Modell,
Wurzeln
Schnee
hilft,
Dame
Autor@@
mer@@
öffnete
druck
ße
teilzunehmen.
Strahlung
gewählt
Del@@
dankbar
gewisse
gier@@
sie?
herstellen,
europäischen
Vorhersagen
Mann:
Pau@@
Umgebung,
umgebung
Vielzahl
nungen
schätz@@
handeln,
treten,
industriellen
2009
erhöhen,
0.
akzeptieren.
bedeutende
Rio
stern
schwäch@@
ktiv@@
bio@@
Einschränkungen
dunkle
ien@@
beinhaltet
starkes
Depression
klar@@
Einkommens@@
beobach@@
Tr@@
Bewegungs@@
Performance
Auto,
ignorieren
Fotos,
netz@@
Nahrungsmittel@@
ökologischen
Augen,
wirksam
gingen,
gesagt.
Schau
gen:
Führungs@@
Maschine,
Worüber
Wahl,
Katastrophen
notwendigen
hren
Gedächtnis
organisieren,
neugierig
Weise.
äuß@@
Brust@@
kauf@@
gene
gegründet,
Uni@@
gele@@
Raum.
Investoren
gr@@
erstaunlichen
drehen.
Bor@@
bedroh@@
Fall@@
sicherer
erfolgreiche
Phänomene
Metapher
Ärzten
quote
Ausgaben
Terroristen
Planet
ions@@
iert?
l,
steuern,
brechen,
Sä@@
überleben,
geschlossen
vertrau@@
Fußball@@
Empathie
Immer
leistungs@@
7%
eingesch@@
Pan@@
enge
6-@@
beispiellose
Trau@@
kümm@@
berg
jähriges
cher
stat@@
veröffentlicht,
allzu
Wissenschaft@@
schicht
erz@@
erhöhen.
Zumindest
Maße
Robotern
Fangen
Pass@@
geeignete
ernst@@
erstaun@@
Tages,
besuchen.
besie@@
fuhren
absichtlich
Ke@@
isieren,
Neuro@@
unglaublich.
9,
Mark
eingeführt
Management
Organisation,
Jahrzehnt
erheblich
S-@@
aufzubauen,
Blog
9/11
oben,
anten
Indiens
aut@@
iken
Fall,
schön.
2005
vorhersagen
erwarten
Eigenschaft
Körper.
physi@@
fand,
ete.
Welle
b,
erfahren.
35
seltsam,
Straße,
ka
ogra@@
baute
wissenschaft@@
berühmt
eich@@
Ausgangspunkt
tert
matischen
ken@@
präzise
igste
Asteroiden
Ozeans
virtuelle
Flüssigkeit
Genen
mechanische
Kameras
empf@@
schen@@
ffen
breite
Forschung,
fei@@
Polizei@@
haften
ß
Dasselbe
vorbei.
Außenwelt
zahl@@
entstand
Team@@
ren
erfüllt
ja
re
fließt
Hektar
beantworten,
genießen,
mobil@@
mutig
Inseln
warten.
A,
Blogs
Kn@@
oben.
gekommen,
Landwirte
Kilogramm
musste,
verschwen@@
mächtig
stellen?
zin@@
Frankreich
verursacht.
omen
heimlich
Gebäuden
Han@@
beruh@@
äu@@
fühl@@
heiß@@
21@@
erfordern
Neugier
isieren.
Por@@
ystem
Gefangenen
extrahieren
Nutzen
Kapitalismus
ersetzt
Bürgermeister
neur@@
Physiker
eingesetzt
ckt
5,
Wissen,
gel,
Tee
Kurz@@
Weltkrieg
Bereich,
Flügel
re.
speichern
drehen,
Pinguine
bewe@@
untersucht
Füßen
ausschließlich
kri@@
ator@@
kin@@
All@@
Feind
Bei@@
fach@@
Logik
erkannten
Geld.
Schule.
Überrasch@@
Themen,
Gruppe,
dabei,
Pet@@
2006
gie
produz@@
verständ@@
Unfall
Besitzer
gegangen.
wieder.
Ir@@
Schall@@
haf@@
Cola
niedrige
Technologien,
Spielzeug
flü@@
Bob
Radio
Chance,
Fl@@
irgendetwas
des@@
Gesch@@
Konzentration
Ägypten
ersetzen,
still
übertragen.
prü@@
Sar@@
Impfstoff@@
Situation.
geändert.
Ehe@@
Streben
wieder,
versammelten
England
Steine
l.
Person.
wirtschaft
unerwartete
schaut,
Dadurch
Lärm
Links
gesellschaft
Beginnen
fange
Sol@@
lage
sicher.
könnt
erzeugen.
Patent@@
Ob@@
Klavier
einzelne
Lauf@@
Hor@@
holen
Lich@@
lautet
Boo@@
Projekt@@
Anti@@
nie@@
Chip
Kno@@
elektrischen
übernehmen
wechseln
18
Pollen
erschienen
dich.
Plan,
Mel@@
Blätter
oren,
Onkel
Dichte
tief@@
Geschäft@@
Delfine
Rom@@
Kunst,
beunruhig@@
aktive
Stock
Talent
Sor@@
bildet
gabe
veröffentlichte
Wetter
Flugzeug@@
vorbereitet
sozi@@
erzeugen,
erklärte
Party
t?"
bitten
testen.
Lei@@
Emotionen,
dauer@@
Autor
jeweils
medi@@
möchten.
erstaunlich,
präsen@@
umgewandelt
id
and.
vermeiden.
ausgegeben
Eisen@@
pflanzen
design
professionelle
Angenommen,
Tragödie
Ökosystem@@
gebie@@
Volks@@
gehalten
tete,
trä@@
hinzugefügt
sche.
Frauen.
stimmen
betrifft,
Hunger
nichts,
Experiment,
schau
keit@@
Food
Lang@@
verw@@
geöffnet
identifizieren
schem
nimmt,
verbrauchen
schnitt
dahinter
Einheiten
Würde
mann
Künstler,
stoffen
nun,
unterscheiden.
half
sprach,
New@@
Sensoren
ktor
ey
Mensch.
ot
Konsens
Werkzeuge,
bestehen,
lichkeit.
gewöhnlicher
ernsthafte
schrecklichen
Billionen
Vari@@
anti@@
Bil@@
1,5
Bedeutung.
heißen
heute,
ange
schlecht,
Wohl@@
liebt
nochmal
genommen.
onen,
inspir@@
regul@@
erlebt,
Nar@@
195@@
Geburtstag
äh@@
Dich@@
synthet@@
icht@@
wirkt
d?
ban@@
baten
"S@@
Richtungen
anschau@@
erhält
irgendwann
Argument
bekannte
übersehen
höre
rit@@
vielerlei
entworfen,
symbol@@
land.
Spann@@
schließ@@
scht,
treibende
fünfzehn
Sozi@@
auszudrücken.
Bra@@
Kabel
gehör@@
hinunter
höheren
Dollar.
om,
14-@@
Hand,
Austausch
Stress
sahen,
che,
Tempo
kti@@
bereiten
2010
Vorder@@
100@@
zen.
50@@
basieren
iPhone
tungs@@
wirk@@
bewusst,
Geschlecht
Umlaufbahn
Cor@@
ver,
ib@@
Persön@@
dürfen
Vorstellung
Fer@@
mache,
Hause,
eineinhalb
getestet
Absicht
kre@@
Knochen@@
tödliche
entwarf
Teilchen
Entdeck@@
worden.
förmige
lich:
Bildungssystem
Freiheit,
Tal@@
Investition
harte
aner
besorgt,
Lehrer,
schrift@@
gelegt.
Bald
Echtzeit
globaler
Diskussionen
mie@@
iker
verteilt
gens
Früh@@
80-@@
fünfzig
Silicon
rü@@
zeichnete
ling@@
früheren
aufhören,
Je@@
stä@@
hinweisen,
hält,
grau@@
stie@@
scht.
veröffentlichen
schaft@@
Faktoren,
vorübergehend
cht,
definieren
verstand
feu@@
verfolgt
unwohl
komp@@
definiert
Kampf@@
drück@@
versorgung
Bauern
Preise
wo@@
experimentelle
maßnahmen
beenden.
wagen
Animation
Fü@@
Mount
7,
schaut
seitdem
Rad@@
Web@@
rein@@
ala@@
Wall
alist@@
sicht@@
Teil,
ball
kalt
Baby@@
zent@@
schön,
Saturn
mechan@@
kommen@@
Lach@@
Tumor@@
glaubte,
falsch,
pla@@
ierung.
kat@@
wovon
Spiel,
auszudrücken,
betrifft
Reihenfolge
Winkel
arabischen
1930er
heu@@
Ed@@
Basierend
schwerer
studierte
Wissenschaft,
erzielen,
Medikamenten
charman@@
or.
mitten
Mag@@
enden.
ritt
persönlicher
del
Kollege
alisiert
durchschnittlichen
bestehende
Blutgefäße
treten.
Vaters
Richtige
Rolle,
Beschreibung
analysieren,
Mainstream-@@
Rot@@
gewonnen.
auseinander@@
issen
wand
veranst@@
ingen
vorzu@@
nutzten
ausgedrückt,
ihn.
Klang@@
an?
pfen
?'
nichts.
hielten
für@@
Kunststoff@@
Anweisungen
Wort,
aufnehmen
danach,
ierung,
einsch@@
Probleme.
Recht,
Jahrhundert,
us-@@
Wegen
Strategien
Menschheitsgeschichte
Schn@@
teil.
herstellen.
Universum,
ener@@
Sagen
gemessen
Afrikaner
Handel
Verluste
anwesend
langweilig
Psychologen
aufs
deines
Faktor
ausreich@@
ographie
isol@@
energie@@
Einrichtungen
lös@@
buch@@
ah
wie@@
gelben
globales
welchem
allen,
Aufnahme
Techn@@
drahtlose
dien@@
Cra@@
beeinflusst,
geräte
Schweden
Positionen
interessieren
berühren
vorstell@@
zw@@
leiten
Company
machte,
gestalten.
Eigentum
zeu@@
weisen,
Tasse
Versuch,
Sach@@
sehr.
stimm@@
gebieten
gesehen?
konkurrieren
Gesundheitsversorgung
Institution
schul@@
Antarktis
194@@
erfunden,
Erfahrung.
schöner
Gehalt
Berge
Spiels
enes
eilen
Veränderungen,
Zweitens,
lasse
bestimmen
gegenwärtige
akademische
investieren.
erzielt
beeindruck@@
"?
Molekül
betroffen
kombin@@
Cre@@
Gruppen@@
ale,
interessiere
kleinere
Angelegenheiten
verfügen
60%
integriert
bt.
aufgeregt,
veröffentlicht.
beliebt
modelle
Gesellschaft.
erre@@
Großen
State
Lager@@
Kü@@
Plastik
wichtig@@
akzeptiert
Gemüse
beeinflusst.
ium
freund@@
emp@@
Berufs@@
Klinik
dung,
6,
17-@@
gedacht
Polio
Krankheiten,
Fluss@@
britische
Briefe
Brust
hoff@@
keln
fasziniert
süchtig
trage
Ausnahme
Schlussfolgerungen
he
Reisen
40@@
Rat@@
bele@@
ine@@
großartiges
erb@@
schrieb,
Werbe@@
anzupassen.
enzen
hinaus@@
lebende
Flug
versuchen.
Gib
rat@@
lässt,
up@@
kost@@
gesetzt
ktiven
mod@@
hinten
i-@@
primitive
spüren.
Raketen@@
Exp@@
Energie.
Insgesamt
Jugend@@
bekannt,
geschaffen.
experimen@@
Regel@@
popul@@
erwähnen,
Stämme
gefährlich
Übersetz@@
Konflikten
Medi@@
Sü@@
übrig
Manhattan
verlei@@
Arch@@
bemerkte
Sil@@
durchführen.
Verringerung
Kohlenstoff
verrückt.
komplexes
Foto@@
verschwunden
gem
haft
erfüll@@
ari@@
gangs
Nordamerika
ungleich@@
anc@@
Zusammensetzung
Masse
kritischen
Boot
Ren@@
analysieren
beizu@@
leuch@@
Dan
Prozesse
vorherige
improvis@@
schnelle
wahres
rö@@
Stadt.
ia@@
abel
äch@@
eigentliche
mobile
großartigen
transportieren
begleitet
neuronale
tropischen
Hot@@
profitieren
lud
erzähle
beschäftigt,
gefragt,
ber.
beding@@
Berichte
zerstören
Lager
Fertig@@
gebrochen
Kugel
Bestes,
stud@@
arbeite,
wissenschaftlicher
frustr@@
genieße
Preis@@
Roman
York,
entspann@@
erwachsen
gezeichnet
rein
Nicht-@@
technik
reparieren
Nimm
Ph@@
Songs
leisten,
Essen,
Mach
tanz@@
zeichen
alo@@
Leute.
Laptop
Schöpfer
genen
Bä@@
Bäumen
aufzubauen.
por@@
künstlichen
Beweis
erf@@
ner,
Wohnung
erzählt,
beantworten.
ers.
Aussterben
Dimensionen
Haus,
bie@@
nde
"A@@
Solche
Polar@@
Nutzer
wege
amerikanischer
Human@@
My@@
möglich.
Teleskop
zes
Flo@@
block@@
Symmetrie
schaften
Meerwasser
tiefgreifende
letz@@
soziales
kten.
vertrauen
Messung
zehnten
bewer@@
Pflanzen,
verursachen,
Hintergrund@@
Schüler,
abgelegenen
ansehen
ins@@
Frieden@@
wertvoll
potenzielle
cool
Weihnachts@@
kollid@@
hinzu@@
nachzudenken
verdient
irgendeine
überlegen,
Zunahme
bei,
den"
brei@@
iten
Charakter@@
Oktober
Ada@@
Experte
intelligenter
Wände
Schrei@@
Plat@@
platz
bewiesen,
zieh@@
erinnern.
-jähriger
altes
frag@@
liegen.
entschieden,
matische
zentrale
erkannt,
bilder
Juni
nissen
stet
alis@@
getan?
rannte
ingen.
yst@@
gender
Direktor
glauben.
va@@
explod@@
Gestaltung
bezahlen,
Nacht,
bieten.
Zuschauer
reisen,
Sie?
beschleun@@
übrigens
30000
koordin@@
beweisen
ungstechnologie
Sterblichkeitsrate
abl@@
trau@@
sequenz@@
erfüllen.
angezogen
Lichter
Seil
schwarz
deuten
nützliche
beibringen,
Überleben@@
Stamm
konzentr@@
zelle
stoßen
verbrauch
mö@@
Mau@@
Paris
hilfreich
Türkiye
See@@
Leser
Mamm@@
tik
danke.
Gut
Beiträge
nah@@
Prot@@
Reserv@@
Glück.
groß.
gezwungen
Arm@@
Pakistan
vit@@
Leit@@
stattgefunden
8%
einfach@@
Kap@@
Gerät,
Verwenden
ina
mögen.
Leiter
Algen
gründen,
utz@@
Haiti
wahrschein@@
Hacker
Passwörter
ür@@
schn@@
4000
Kreb@@
körper@@
Gletscher
Wirtschaft,
zuverläss@@
Transparenz
gend.
erer
möglichkeiten
kte.
arbei@@
prakti@@
schnei@@
Gemein@@
Philosoph@@
Kontext
haus
erschaffen,
relevante
Terror@@
folgte
hob
darauf.
Schafe
verzerr@@
nachdenken.
Wachstumsrate
städ@@
Effekte
fähig@@
volles
gehalt
Verkauf
Behandl@@
d:
kehren
Laut
gewisser
Mod@@
dasselbe.
schnellen
so?
suche
ität@@
produkte
verbraucht
spirituelle
organisieren
Dam@@
Vorhersage
Dazu
verbrachten
besteht.
Blau@@
überwachen
Behandlungs@@
grundlegendsten
enden,
hörten
noch.
Überraschung
ute
neun@@
fallen.
öhn@@
Ganz
diesmal
Anerkennung
nördlichen
geschieht.
Veranstaltung
itz@@
Genauigkeit
füllen
Mö@@
Belohnung
Bedeutung,
tes.
stattdessen
xi@@
ca@@
nis,
effekt
Theater
ater
Dire@@
Block
achten.
ologischen
lungen
Gehirns,
eten,
Big
genaue
15-Jahren
Schalt@@
fangen,
Hypothese
interagieren.
pf
cor@@
70-@@
umgesetzt
14
Theorien
entfernen,
dig@@
echtes
Mikroskop
Stamm@@
dor@@
heben,
Obama
ern?
Bienen@@
Nächstes
Macht@@
Syndrom
Wasserstoff@@
Knoten
gar@@
Kraftstoff
überprü@@
ur.
Back@@
Robo@@
ana
Klin@@
bl@@
Summe
Ende,
David:
diese,
steu@@
gel.
sse
Versorgung
förder@@
glob@@
tex@@
beschränkt
Tabelle
zeigten
herausragende
klein,
Bildung,
gleich.
person@@
te-@@
Flie@@
test@@
gelbe
Merkmale
staatliche
bezeichnet.
Materialien,
Arzneimittel@@
festzustellen,
ktiv
eingeladen
rufen
Gesetz@@
teilgenommen
Oper@@
ore@@
e",
lässt.
Stücke
Wat@@
Mikrofon
leise
Schluss
Kommentare
Alternativ
beängstigend
lohnt
treiben
wertvolle
Witz
stro@@
200000
spür@@
Schlachtfeld
2004
team
zit@@
Antwort.
schön@@
abgeschlossen.
Nachts
Milch
Oxford
glaubte
diagnostiziert
akademischen
positiv
Fehler,
Produ@@
tust,
13-@@
Vitalität
funktion
Leich@@
nisses
allgemeinen
Samm@@
prob@@
pe@@
cker@@
sperr@@
Geh
ug@@
Dor@@
fü@@
Vertrau@@
stütz@@
for
Staats@@
nenn@@
Start
Kom@@
Eier@@
Null@@
Produkte,
militärische
rosa
Hersteller
Indi@@
Erfinder
Rede,
Reformen
2008
Schrift@@
Zit@@
P
Rettung
Medikamente,
ziel@@
Tim@@
losigkeit
Interview
bank@@
Wörterbuch
dafür.
Wol@@
ia,
Rab@@
Batterie
Global
4%
Pin@@
Biologen
pre@@
Arbeitsplatz
fördert
Autorität
technischen
zeiten
Lehrern
unterrich@@
betrachtet,
wähl@@
E
G
lauf
cke,
klassische
Band@@
praktiz@@
Passwort
dessen,
statt.
vergessen.
meist@@
Schau,
ßt
gelöst.
Versuch@@
materialien
städtische
Sinn@@
tue
richtig,
besagt,
integrieren.
praktischen
Auft@@
sprang
Veröffentlichung
überraschende
Zentral@@
Urlaub
wirtschaft@@
änderte
schon.
Schichten
Glaubst
-jährig
erklär@@
ärmsten
schnell.
Wirksamkeit
Fahrrad
Frau:
gründen
intelligenten
berechnen.
nervös
Stein
ignor@@
befinden.
Stabilität
starten
err@@
aufmerksam
Entwickl@@
Auss@@
überwinden.
Planeten,
Handy
70
weiß@@
zwingen,
erw@@
digen
Dein
atives
beobachtete
leeren
überprüfen.
Ära,
schlagen,
Roll@@
befindet.
politischer
dy
Nachrichten,
zurückkehr@@
Fotografie
weh@@
stellen:
Original@@
bei.
Nadel
Pen@@
Statistiken
Struktur,
verschmutz@@
Indien.
schnit@@
Organis@@
hier?
tisch@@
L
Gold
son,
Lügen
Spitzen@@
abdeck@@
Beide
Grenz@@
perfekten
rüber
plan
späten
Entwicklungsländer
3000
wichtig?
Wut
Ö@@
Glühwürmchen
unbekannten
lebt.
mente
Aspe@@
anwenden,
erischen
schlech@@
langes
sion
jüngsten
signifikanten
reagieren.
mier@@
schick@@
Wissens@@
unterrichten
generieren
räum@@
weiterzu@@
Frank
6000
Tom
renn@@
Labor@@
einzige,
veröffentlichten
Forschungen
möglich@@
langem
stadt
steuern.
es"
30-Jahren
isten,
ade
Betrieb@@
real
teilt
Lebensstil
heraus.
Frucht@@
omm@@
fri@@
Küsten@@
körper
ci@@
verschwinden.
Herausforderungen,
Tränen
ier,
freiwillig
0-@@
vernünftige
abteilung
acht@@
versammel@@
Agrar@@
Handels@@
durchdr@@
Kommunikation@@
Nachmittag
trin@@
hinzufügen
Willen
stör@@
Luft,
ors
Häusern
führte.
liegen,
schreibe
sendet
Voll@@
weiß.
schreck@@
wohl
Ben@@
Optionen
intelligent
250
arbeitet.
Standard
TED-Rede
O
ehemaligen
Bus
ep@@
Camp@@
Maß@@
sexuellen
natürlicher
Wir@@
denselben
außergewöhnlich
ma.
trenn@@
fas@@
stoßen,
Beleuchtung
Religionen
Teenager
Star
Funktion@@
Studio
Computer-@@
medizinisches
Geräte,
vorhanden
Restaurants
minister
freundlich
bis@@
böse
Angriff
Partikel
sodass
Open-Source-@@
fall.
Interviews
tin
stehende
Insel@@
schlecht.
Doktor@@
Magnet@@
Fledermäuse
drinnen
seite
fließen
entfal@@
wasser
stabil@@
Zyklus
kte,
en)
sti@@
Katzen
gefühl
ah,
Asien
kreativ
Mühe
Konsum@@
brech@@
Mutter.
ton,
End@@
Sahara
bestätigen,
Zehn
Kranken@@
sagen@@
signifikante
bedienen
Spektrum
anzuwenden,
nei@@
Sprache.
System.
nisse
Afrika.
Diesmal
Form,
basiert,
beenden,
Krankheit,
Chinesen
West
Meile
verbracht
kalten
kostenlose
blau
gebiete
engag@@
2003
geschützt
Februar
Schwimm@@
Drittens
enor@@
sicheren
hielt,
anderes.
behalten
schock@@
Den
organisierte
bedingungen
500-@@
River
iff@@
stellung
Produkten
CEO
verstecken
verwandte
gib
mitzu@@
sche@@
großartiger
Gre@@
Schädel
verfügbar
kurs
Pferd
Meister@@
sieh
Sitz@@
präsentieren,
Video,
bedeutungs@@
wollten,
Abschnitt
erober@@
Massen@@
Diabetes
bank
th
lit@@
aufgeregt.
Men@@
bemerken,
zehn@@
SMS
DH:
Invest@@
Formel
zell@@
erfüllen,
Got@@
zurückzuführen
hohem
zwei,
atur@@
sien
Sicherheit@@
kul@@
Blin@@
Atem
ausgeben
Zurück
wirtschaftlicher
Zusammenfassend
schädlich
Billion
Wein
vorhersagen,
grün
Brot@@
Kraftstoff@@
Lan@@
geholfen,
Lebewesen
schwer@@
ick
ther@@
malen
nden
ernst.
nenne.
lange,
Vermögens@@
hin.
"O@@
eintreten
Regenwald
andau@@
Filmen
Verhalten,
billiger
lassen?
Speich@@
Sus@@
fe.
stein
omet@@
erei@@
mathematischen
Perspektive,
Drei@@
Beteiligung
bestimmen,
diskutier@@
Klänge
ker,
Software,
programmier@@
Jon@@
geführt,
schil@@
Feinde
Flughafen
fot@@
Long
verwendete
ht
ll@@
kten,
Kuchen
graben
zeugen
behandlung
Muskel@@
Schulter
schaue
Fehl@@
damals,
schein@@
Roten
500000
springen,
trifft,
aden
sind:
Ser@@
gewesen
erlauben
zustand
Andersen:
aufrechterhalten
Pil@@
Krebszellen
Dichter
Stattdessen
heutzutage
beenden
Schlei@@
bevorzu@@
Schöpf@@
organisiert
Last
gien
fähig
system@@
schießen
multi@@
wert@@
plat@@
sten@@
Mann@@
Wale
Mike
Minuten.
motiv@@
"Aber
bes
Annahmen
ns
bloßem
rat
es:
Krebs,
able
ment,
Haut@@
Echtzeit-@@
getroffen,
steckt
ersetzen.
bri@@
Lö@@
Löwen
Durchmesser
verursacht,
holen,
trennen
Schäd@@
Heu@@
wären,
pl@@
Zusammenbruch
erklärt,
Stunden,
aufregend
erweitern,
Wider@@
Augen.
Baseball@@
hätten,
King
lächel@@
Haushalts@@
Muslime
weltweiten
Sound
sei,
Neues
griff
Hühn@@
mass@@
isierte
Spar@@
Infrastruktur@@
Yu@@
ebene
HIV-@@
wider.
Gas@@
gearbeitet,
Derek
Arthur:
Mark:
erforsch@@
Boden.
Nahrung,
Quellen
qualität
größe
kontroll@@
Produktivität
International
enten.
erreichte
systeme
erheblichen
Finanzierung
Steuern
ähr@@
Cli@@
Satelliten@@
Emissionen
Peter
neueste
verursachen.
umfass@@
einfluss@@
ernähr@@
kollektive
revolution@@
vorherzusagen,
warf
ding@@
Staat@@
stopp@@
beantwor@@
Skala
Regier@@
direkte
US-Dollar
enormen
12
Sonder@@
erreichen?
Zei@@
Sound@@
Ali@@
Stift
lieben.
ckte
reag@@
ach
Todes
befindet,
süß
Mass@@
ive
verabschie@@
Trennung
dünne
ard@@
ergreifen
ance
gewähr@@
ressourcen
hellen
Impfstoff
99%
fro@@
ja.
kontrolle
installiert
graben,
Neben@@
Wahl.
d"
Mehr@@
Hum@@
Schwierigkeit
Ursprünglich
Schritt,
Schach@@
Verstand
starten,
warum.
Lebensunterhalt
den."
uten
fünften
Alter@@
einfach:
sprozess
kehrten
Brenn@@
Ganzes
euch,
komplette
Verbrauch@@
fragen.
Unsicherheit
Rasse
bemerkt
interaktive
hält.
begleit@@
Rakete
Szene,
Ähnlichkeiten
Illusionen
teilweise
liche,
Nachhaltigkeit
beseitigen,
bö@@
Institu@@
teilzunehmen
omen,
erfunden.
Kot
verbreiten.
Mengen
CO2-@@
Gas
Prüfung
Beru@@
Jugend
Aufbau
unterschiedlich.
schicken.
Uganda
aufgenommen,
Punkt@@
Sternen
hinzu,
erstellt,
Betrachten
Bild.
Tür@@
Wettbewer@@
Verkehr@@
Gore
Natur.
englische
Haie
saubere
eig@@
Weißen
Laptops
mes
Ameise
Wal
Zoll
Kongo
Solarenergie
KB:
Entwicklung,
Bakterien,
Wur@@
berühren,
Schwarz@@
High-@@
glückliche
still@@
nein
Forschungsergebnisse
weise,
gearbeitet.
Job@@
sagst
0er
Bewertung
Alters@@
Lehren
Systemen
Space
sive
Sieg
Ideen.
Kopf.
sch
Kollegen,
Symbol@@
ständige
gestiegen
Media
behinder@@
beschleunigt
platzieren
Yor@@
berühmter
umzugehen,
Nachrichten.
mich:
traf,
way
geworfen
tag@@
zer
unabhängigen
Theorie,
schwierigste
erfahrung
jenen
Nährstoffe
füll@@
defin@@
stamm@@
eter
Virus,
aufgeben
schlechtes
haltung
entworfen.
richten
offensichtliche
Neue
Truppen
lichere
hen,
Mot@@
ya
jährliche
strate@@
tigten
wussten,
niveau
glück@@
ihnen:
korrekt
unternehmen,
ähnlich,
hättest
industrielle
It@@
erhielt,
rechtzeitig
Betriebs@@
Kapital@@
Publikums
les@@
leicht,
ons@@
Macht,
Bedürf@@
erleb@@
rel@@
Tau@@
mach
einsetzen,
ser
anwesenden
kultivieren
Business
Gruppen,
fragte,
zeigt.
Ghana
John@@
fen?
Quadrat
aufrechtzuerhalten.
auftreten.
Eingang
mangel@@
stän@@
billig
C-@@
betonen,
hu@@
Hemisphäre
BF:
de?
kultur
äss@@
Ah@@
geschickt.
Entwicklung.
Hey,
werden@@
Programmier@@
funktionieren,
Was,
kra@@
Anthrop@@
Eu@@
Lat@@
heiten.
reserv@@
Kä@@
was,
Hir@@
Vertrag
Höhlen
illegal
schaft,
Ausbruch
top@@
igkeit,
leere
igt
Erdbe@@
Rettungs@@
del@@
sorgen
Lü@@
starker
Handeln
herausforder@@
programm
Blasen
unterricht
lernen?
dis@@
syste@@
beeinflussen,
berich@@
Hack@@
vierzig
Film,
ori@@
t",
Euro
verbrau@@
nerv@@
lang.
Jeder,
Krankenschwestern
stärk@@
asse
formul@@
schicken,
Süß@@
arr@@
unglaublichen
seltsam@@
verrückten
mächtigen
hinein@@
Prototyp
len@@
Aufführung
Absatz
ausgewählt
Depressionen
entkommen
beschädigt
okay
leiden,
Schlange
kümmert
schickten
Leu@@
interview@@
starb,
Engl@@
Wetter@@
Autos,
16
arzt
allgemein
Hyper@@
Berührung
Nerven
b.
schütz@@
ish
und,
Krankheits@@
mt
Hightech-@@
Sechs
95%
Moskitonetze
kluge
Freundlichkeit
verspot@@
blei@@
Kamer@@
engen
transparent
lege
geeigneten
ungen@@
Mittel,
X
nütz@@
Behinderungen
aktiver
extreme
blick
zuvor.
werte
kostengünst@@
ce.
verbin@@
gend,
lichkeit@@
list@@
beiseite
unmöglich.
Decke
Bit@@
bewunder@@
Flying
Detail
Später,
Achten
Antwort,
Güte,
Rap@@
sanft
feste
Sorge
da?
sicht
fall,
rus
erinn@@
arch@@
Sprech@@
Interaktionen
Manager
Umweltschutz@@
verfügt
erschaffen.
naher
em,
rot
verwandelte
Hü@@
fotograf@@
Teufel
etablieren,
Tropfen
dar,
Steu@@
markt@@
transpar@@
externe
Wunder,
dank
echter
ähnelt
Mathematik,
Fünf
2.
mittel,
Kohle
Reise@@
Pilze
kritis@@
tet@@
Ergebnissen
angesichts
primitiven
Unternehmens@@
Krankenhäuser
Lungen@@
Bohr@@
75%
einzelnen
erforscht
reisen.
Hol@@
einig@@
zt
heiße
nannten
geschweige
leisten.
Versuch
erwähn@@
wenigsten
optimistisch
45
zugute
Ungleich@@
unterteilt
Erinnerst
bew@@
benötigen.
berechnet
gefährliche
kommerziellen
ton@@
Szenario
omie
frustriert
stechn@@
Amerik@@
zurückgekehrt
Atome
los?
grei@@
schmerz@@
stheorie
Experimenten
darf
bezahlen
ausreicht,
ktoren
arbeiteten
Ausdruck@@
Raumes
Pop@@
passen
Problem@@
gebäude
Campus
Interview@@
California
bat@@
ologi@@
sal@@
Mär@@
modell@@
Papier,
lers
liefert
6%
betreten.
bringe
dargestellt
entfern@@
führer
Premierminister
November
ihm:
ty
Geburtstag@@
Nachbar@@
Bein@@
gehor@@
entgegengesetzte
Gew@@
wiederhol@@
sol@@
älterer
ähnlich.
geringer
Denk
übermäßig
Comic@@
Karte,
Marken@@
Einklang
Ursachen
ks@@
Wander@@
Abhängigkeit
mini@@
eth@@
Gletsch@@
üblich
flach@@
gewöhnt
Muster@@
zähl@@
Karten@@
Fremden
Geistes@@
müde
Brow@@
cht.
Angesicht
Schwarze
möch@@
präsentieren.
u,
Route
behandel@@
schwanger
ingt
definieren,
ministerium
Phot@@
Rö@@
blä@@
Cover
Nu@@
Brennstoff@@
frühesten
deck@@
auftau@@
hafte
Stro@@
Vogel
Gegner
dur@@
Tar@@
bern
ahn@@
setzt,
brauchte
zulassen,
Konzep@@
heute.
oh
Kohle@@
Krankenhaus@@
kämpf@@
Fahrzeuge
zehntausend
Mathematik@@
ierendes
Trends
Arzt,
Gliedmaßen
Organisations@@
n:
icht.
Erdgas
Kernenergie
GPS-@@
Notfall@@
verlust
Mut@@
Mai
Oxytocin
ju@@
Athleten
eine.
zerbrech@@
erne
2:
aufgegeben
Kortex
Erfolgs@@
Bier
weitgehend
Praktiken
Schlag@@
000-@@
frucht@@
gezeigt.
lichen,
klaren
dige
Wissenschafts@@
North
Zwecke
glaubten
Betrug
Phänomen,
Stra@@
reduz@@
versuchten
Abstand
Meister
teres
Krankenhäusern
etablieren.
kompon@@
ve@@
vo@@
gezogen.
Feu@@
Nahrungskette
Budget
Nahrungs@@
Milch@@
isierten
Werkzeug,
Trä@@
gro@@
ktor@@
Ozeane
Raub@@
erschüt@@
9-@@
ries@@
3000-@@
.com
Beinen
ine,
brin@@
Team,
benutzt.
fühlte,
Entscheidung,
Ärzte,
erwar@@
Ausland
Ausgabe
kontinuierlichen
Aufgabe.
antwor@@
Obje@@
Sprichwort
verbreitet.
läu@@
überla@@
Ah,
senden.
am,
Projekten
Klimawandels
Architektur@@
anfangs
Medien,
Air@@
Stoffwechsel@@
Mensch@@
jährlichen
kognitiven
Ahnung,
mung
x-@@
klug
räu@@
maschinen
herstell@@
kühl@@
Einfachheit
kommuniz@@
nisse.
!'
verloren,
gemach@@
Ärger
synchron@@
Administration
Zentimeter
klettern
3.
Tit@@
ol
Interessante
untere
drü@@
Interpretation
sion@@
Bedürfnissen
gerecht
Kir@@
off@@
Website,
Prototyp@@
Pu@@
Humor
Darstellung
ball@@
intuiti@@
töten,
änder
dekor@@
Medium
bereich@@
tur@@
schutz
ungewöhn@@
China.
Dezember
zel@@
ständigen
geleistet
bewegt,
Debatten
ierten.
Krie@@
South
Krieg,
Debat@@
rufe
fle@@
Kapital
analy@@
Wunder@@
lager@@
interessiert.
Skulptur
icht
ungen?
loszu@@
Schrift
kod@@
blau@@
Hon@@
senken
geschlossenen
Bedarf
Sklaven
überwach@@
Spenden
Bang
wellen
Meer@@
hartnäck@@
Wahr@@
Mechan@@
"Ist
Kompromisse
"die
Bla@@
leist@@
ren@@
arrang@@
setzung
igsten
bezahlen.
beschloss,
up
Jim
schnellsten
bestimmter
Alkohol
Schön@@
wiederholen
Tricks
versteh@@
lokaler
wissenschaftler
reich.
basiert.
Bre@@
Blu@@
Stand@@
geschafft.
überwinden,
Grafik@@
ves
gehst,
dri@@
ian
ständig.
2050
gegessen
Rom
markiert
Probe
Erweiterung
erkunden.
Reise,
Einzelpersonen
Jahres@@
integrieren,
Anzeichen
fühlten
Eltern@@
lustig
üb@@
heiß
schweigen
relevanten
Reform
Termin@@
berücksichtigen.
iens
Erfol@@
Übung
spricht,
Gefangene
erstellt.
Fuß,
Gesundheit,
Magazin@@
Punktzahl
strukturen
anwen@@
Time
berücksichtigen
Nebenwirkungen
ungstechn@@
Lieder
unterscheidet,
Anzeige
wonach
Internet.
Bot@@
äd@@
Sympathie
Englisch@@
schalten
aufgebaut
Artikel,
15%
&@@
Anru@@
lehren
können:
studiere
Resonanz
schrift
stur@@
Dankbarkeit
Nat@@
Atomwaffen
ble
igen.
Generation,
sons
ungsk@@
Great
Ohr@@
träum@@
Haus.
Spiel.
Design.
le"
Erwachsen@@
geschei@@
freier
ath@@
repliz@@
"Schau,
roll@@
implan@@
st:
enthält,
Kla@@
Letzten
Schulen,
ehemalige
Prä@@
Nah@@
Arten,
Hom@@
e."
punkte
Infektionskrankheiten
ischem
tik,
Miss@@
Sir@@
verstehst
länder
bestra@@
liefern,
fiz@@
sel
extrahieren,
Ford
Eli@@
Zeile
Hilfs@@
Coca
ett,
90
Herzerkrankungen
Span@@
kel
Station
gegründet.
Watt
Energien
Gesundheitssystem
Indianer
Fi@@
Zeitraum
Musik.
dient
Chef
zunehmen
Service
fordern
gefragt
trinken,
stärksten
leistung
Mitteln
wahr.
erfordert.
greifen,
ieller
Rauch
wissenschaft
Wege,
Schmerz@@
zerbro@@
wirft
human@@
zugänglich
Frank@@
Sat@@
normales
sur@@
sei.
Tisch@@
nehmen?
Zahl@@
anschaut,
zahlen,
jahr@@
ppen,
platzieren,
mus,
vergröß@@
Größ@@
Dur@@
co
Stil@@
Fin@@
füllen,
Scham
Flagge
unweigerlich
Bay
Get@@
anderem
kategor@@
zehnmal
effiziente
e".
Küh@@
geno@@
ausgezeichneter
vorgeschlagen
Winter@@
enthalten.
vari@@
iven
kultur@@
nachhaltigen
tert,
betrug
hilfe
indi@@
Texas
Planeten.
entsprechenden
Publikum,
le?
mit,
berei@@
blu@@
Rohstoffe
um?
ms@@
Alexander
Entscheidungen,
Auswahl
Ergebnis,
seltsam.
satz@@
Fel@@
Weltbank
informationen
erinnerte
Out@@
Unternehmen.
Experiment@@
ver.
leitung
Kind.
Orten,
endgültige
spirituellen
Unternehmen@@
modus
zeich@@
Bin
Anpassung
pflanz@@
temperatur
produziert.
gleichbedeutend
Stadien
ase
Folge
arbeitete,
dynamische
os,
treibt
Abenteuer
verarbeiten
kurzes
physikalische
unden,
Leonardo
versteckte
mm
Zweifel,
Sonne,
Rä@@
Individu@@
angeht,
fass@@
beschütz@@
Hä@@
beschleunigen
Sowjetunion
bef@@
irgendeiner
hn@@
fängt
Hubschrauber
Säugetiere
Traurigkeit
eten.
erledigen.
tisch,
teur@@
Zeitschriften
Pi@@
computer@@
Mus@@
trag@@
aktiven
Schreibtisch
änder,
heilen
ativer
Ges@@
"N@@
Reich@@
vertikale
Signal@@
spaz@@
immer.
Traditionen
ele@@
misches
Zehntausende
0000@@
züch@@
fahrer
US-Regierung
auto@@
zeit,
by
24-@@
wert,
1.@@
Verwand@@
gesetzt,
wohlhab@@
Algorithmus
sitzen.
Imp@@
versteht,
transpor@@
molekulare
schlagen.
schwarzes
mechanismus
elt,
Grau@@
65
!@@
rut@@
besten,
dün@@
gelten
Welches
Arab@@
bill@@
Schokolade
Car
Asteroi@@
Delfin@@
schauen.
ellen.
Denkens
Sei
Vat@@
Grundschule
Nerven@@
Innovations@@
dene
spazieren
hoffnungs@@
Ländern.
professionellen
Aufkommen
Blase
bezahl@@
Prozess.
versammeln
Cambridge
M
flug@@
Innere
Erzähl@@
193@@
detaillierte
Ehr@@
Iran@@
Hai@@
Jungen,
Tan@@
erwähnt.
anda
grob
aut
Kolle@@
York.
Allein
sichere
trock@@
versuchten,
Voraus
streben
beobachteten
üben
besserer
Schnitt@@
Ele@@
A.
Theat@@
bor@@
gegenüber@@
Gal@@
"Wer
antwortete
1.
Kategorie
Poly@@
häufigsten
Magen
wäre.
nor@@
flogen
Boden,
klar.
verbessert.
sammelt
ausgestattet
Werkzeugen
Schalter
kennen@@
Verantwortung,
Pocken
Stur@@
Knie
erfand
Mannes
Reichweite
genug.
dach@@
Geschwindigkeit,
tut.
Feuer@@
Angriff@@
schockiert
begrenzten
Part@@
Einen
Ment@@
Gedichte
Königin
sofort,
ritten
bestand
erstick@@
Gründung
angetrieben
günst@@
van@@
plötzlich,
ne,
24-Stunden
Felsen
Muster,
bringen?
Motivation,
bewusst@@
ry
Interess@@
Karte.
weisen.
gemeinsames
sparen,
leh@@
Spannung
erleich@@
berg@@
glich@@
ologie.
igkeits@@
Celsius
Höh@@
schlimmsten
erfassen
hof
Amerika
Shar@@
cool@@
angezeigt
Will@@
verbrei@@
gelangen
endete
Mut,
Gummi@@
de:
Ost@@
jener
Schat@@
Identi@@
Eric
Töchter
Museu@@
Pflege
viel,
fluss
Mechanismen
Brü@@
übernehmen.
öpf@@
60000
geord@@
sek@@
au
Taten
Gründer
Freizeit
Gewalt@@
zusammengearbeitet,
weise.
Katze,
Kuh
bewegt.
Anschließend
Hardware
spen@@
köst@@
Liber@@
herausragenden
Erlaubnis
behörden
verschwinden,
entwick@@
Frequenz
erforderlich
reagieren,
schließen.
Guten
elle.
Rep@@
ge?
Fehler@@
Stiftung
Podium
Berechn@@
Herr@@
Cro@@
Stä@@
harten
irgendwie
Alter,
len,
Störung
interagieren,
studiert,
schneiden,
Elektronen
Quanten@@
natürliches
wohlhabenden
sparen.
Störungen
Que@@
Anwälte
Knopf
verurteilt
Hollywood
Selektion
uts
erneuerbare
Lau@@
maschin@@
w,
Tauch@@
Lebensraum
kleineren
erlitten
wickel@@
45-@@
Qualitäten
verringern
Innovation,
mäß@@
Unterrichts@@
Konsum
ehrgei@@
lig
jähr@@
injiz@@
Nerv@@
unglaublich,
zutiefst
Smith
Kriminelle
drückt
Astron@@
Unfälle
spielten
werden:
miter@@
90@@
nacheinander
Ris@@
richt@@
jetzt?
trägt,
beeinträch@@
Letzte,
Hospital
beschei@@
bereit?
elle,
ments
S.
Kreuz@@
aufgezeichnet
hü@@
Museen
Sekunden,
toler@@
Poster
aggress@@
ar.
60@@
Maria
Str@@
wandern
Sommer@@
Foto.
vol@@
virus
nung
fühlst
Beispielen
Ehre
Frau@@
verschw@@
Zuhören
ille
würdig@@
eit
wem
hör
ionen
aktualis@@
pflanzen,
alisierten
Straße.
Kreislauf
bestätigt
platz@@
Horizont
tatsächlich,
verwandt
behaupten,
Strate@@
Politik,
kauften
verbindet.
richtig@@
Ingenieur
Gewinner
Ankunft
bra@@
99@@
Maschinen@@
Baby,
ums@@
Seel@@
Verhalten.
Train@@
2011
Ordnung,
versi@@
Prakti@@
Grupp@@
Bundes@@
umzusetzen.
ama
getragen
übertragen,
verkaufte
verkauft.
Wasch@@
part@@
zusammenzuarbeiten.
subti@@
bel,
Herstell@@
Uhr,
dy@@
sein."
Überlebens@@
Supermarkt
gespeichert
drüben
transplan@@
Offenheit
ente,
ereig@@
3,@@
Tour@@
Kindern.
Reich
Gelder
ionen,
Verwandten
ion,
Prote@@
geschickt,
Persönlichkeiten
ethnischen
18.@@
Ruanda
bohr@@
ad
zun@@
sitz
erwähnten
Gefangen@@
Kra@@
Mikroskop@@
Rass@@
verschlech@@
Rätsel
blo@@
benutz@@
Staub
Typ@@
40-Jahren
hergestellt.
dienen.
besitzen,
Sachen
Straf@@
Nie@@
mieren
betrach@@
Segel@@
dienst@@
fokuss@@
Aristoteles
B.
chs
atmen,
mmern
gen"
heiligen
Verwaltungs@@
Ameisen,
Stephanie
lang,
40000
gerei@@
gewe@@
Freunde.
klingt,
Kommun@@
ernste
Bären
Dienste
Gewinn
Freude,
Fairness
befürwor@@
Erziehung
nehmer
forder@@
auffäll@@
Anwalt
rekru@@
verbess@@
emittiert
angegriffen
Notwendigkeit,
Internet-@@
Großeltern
Klass@@
gern,
lock@@
mehrmals
erziehung
ze,
philosoph@@
Konzer@@
ester
worauf
Ap@@
trainieren
quellen
kenne,
Bron@@
geschnitten
Harmonie
Sin@@
auftritt,
schief
Selbstmord
beseitigen.
"Wow,
gegenseitigen
Mün@@
Gespräch@@
Fabriken
inen
zentren
fern
bahn
at,
wagen,
alien
Kreatur
initi@@
CA@@
voran@@
Panik
itu@@
aufzubauen
gestalten,
Dank@@
richten,
Ken@@
Auto.
solle
wies
Wert,
ungsan@@
einziges
dumm
geschehen.
Punkten
schulen
mann@@
ungsplan
oni@@
stellt,
gelangen.
Juli
reichlich
deh@@
umzugehen.
preis@@
verwandten
"Diese
veraltet
zufällige
11
pul@@
niemandem
verkauf@@
Gemeinschaft,
ön@@
tens
organisation
bewusst.
empfindlich
U-Bahn
Moderne
unten,
Bildes
Show
künstlerische
icht,
Lebensweise
erlaub@@
Ster@@
regelmäßig
davor,
folge
fühle,
uter
Material@@
physikalischen
Klei@@
erkunden,
biologischer
starten.
ssystem,
zurückkehrte,
elegan@@
liefern.
basierte
schaften,
erinnert,
ult@@
Heimat
M:
Roh@@
bricht
Funk@@
war:
irre@@
Konserv@@
abstrakte
französische
unvergess@@
Lincoln
ätzen
begegnen,
Projekt.
offizielle
willst.
Amazon
modifiz@@
mik@@
bestehen.
Hun@@
Gl@@
wör@@
code
halt
oberfläche
sechs@@
Kil@@
konserv@@
Tief@@
angeh@@
heben.
Hauptstadt
Theor@@
Gene@@
überein@@
mus
Mittelschicht
löst
gestell@@
Lachen,
onen.
Blog@@
partei@@
nutzte
komplex@@
Hilf@@
13
schlau@@
Satellit@@
treff@@
Regeln,
Konstruktion
Detroit
Mode@@
Basis@@
let@@
hinzu.
Koordin@@
sech@@
öffnen.
Gerichts@@
io@@
Teleskop@@
typischen
politi@@
spieler
Scheitern
Grippe
Korallenriffe
Lange
Kam@@
überqueren
700
Köpfe
gif@@
Unglaub@@
Aufzeichnung
offensicht@@
wachstum
Folgenden
darstellt.
hervorragende
identifizieren.
schwierigsten
regeln
Inzwischen
untersuch@@
gewicht
Gerä@@
anderswo
C,
Hallo,
Alters
gründeten
vielfäl@@
Berat@@
stau@@
bisherigen
analys@@
schmerzhaft
herz@@
durchzuführen
Herzen,
faktoren
Technology
zurückgegangen
ierungen
befrei@@
sätz@@
zusammenhängt,
a"
bestä@@
aku@@
weichen
kamera
Verfolgung
verfol@@
assen
Beh@@
stimmen.
Worte,
teilten
gegenseitige
aufgeben,
Trotz
fla@@
lagern
reparieren.
materiellen
Szenen
fett@@
go
gelo@@
recht@@
produziert,
übernehmen,
Vorschläge
Tumoren
Union
Kr@@
ome
potenziellen
selbstverständlich
breiten
beschädig@@
Internationalen
Wendepunkt
brach@@
öffnet
warst
Hinter
Freiwillige
konfron@@
Schöpfung
Stern
Profess@@
Ant@@
politik
rechtliche
dank@@
ei
don@@
Präsentation
1940er
stellung,
beginn@@
Warn@@
weiger@@
stände
üben.
Schieß@@
öffentlicher
Übergang
ct@@
mitglieder
repar@@
erfinden
Objekten
Mängel
bens
regener@@
stürz@@
Änder@@
Syn@@
Gewohnheiten
Notizen
Städte,
leich@@
e!
teilte
Exploration
Logo
iellen
Option
up-@@
ps
alisierte
bas@@
hinaus,
Mes@@
pein@@
sag
Wand@@
Planung
Kunstwerke
südlich
empfangen
Fro@@
entwer@@
auszudrücken
krieg
Rat
geschlossen.
entdeckte,
Kochen
Vergangenheit,
Kind@@
Handlung
tagsüber
Umwelt.
Kuh@@
herzustellen
zieht,
Cricket
Welten
Fahren
isst
vir@@
lung,
ging.
con@@
älteste
bemerkenswerte
terte
seltene
vage
bereits,
Prostitu@@
ian@@
Amerikan@@
lernten
Des@@
Chips
blü@@
Schmetter@@
Heim@@
angemessene
zahlen.
Index
arabische
bewegungen
Verarbeitung
00-@@
ka.
Aktion@@
Rollen
Medical
recht.
Ener@@
ash@@
füllen.
Intera@@
ight
brett
Mauer
spezif@@
rier@@
doch
Rak@@
ie"
Branchen
Tele@@
reaktion
Power
spro@@
Job.
Server
Flu@@
ahn
fangen.
keiten
extremen
entscheidender
strö@@
Prozentsatz
Kreativität,
Entscheidungs@@
Servi@@
umfassende
Südkorea
Vorbereitung
Unterschie@@
Pro-Kopf-@@
Erfolge
mäch@@
enttäu@@
Mig@@
Lese@@
beschwer@@
ment.
Fried@@
IP@@
Git@@
imi@@
Nan@@
ents
löste
drücke
hs
inspirieren,
gäbe,
teilung
wir:
bezahlt
ist."
systematisch
igte
hochwertige
zeichnet,
Mac@@
unerwartet
Farbe,
Donn@@
ssystem@@
Figur
Schauspiel@@
Wahrheit,
gezwungen,
nachgedacht
erin,
anz,
März
eingerichtet
ten."
ih@@
freiheit
Futter@@
Temp@@
Getreide
Eth@@
osi@@
Daumen
Verzweiflung
Überwachung
Fotografen
erei
dauerhaft
Life"
Studi@@
Schiffe
rational
verbleibenden
Verwirrung
Stapel
ds@@
Ende.
Gleichung
Leinwand
gefallen
Bat@@
sechsten
ativ
sammelte
ette,
fliegt
Urknall
Extre@@
gesetz
daten,
mensch@@
gischer
Chirurgen
Real@@
gemeinsam@@
landwirtschaftlichen
krise
bedroht
Farm
Trade
landwirtschaftliche
Glücks
vornehmen
zweites
voraus,
Zitat
iel
gesünder
Marketing
Tru@@
hef@@
Doppel@@
€.
Metern
Annahme
leid.
vergleich@@
(Gelächter)
angemessen
Erklär@@
ont@@
wert.
adop@@
spekul@@
Gehirnzellen
ängst@@
schle@@
iv
trans@@
Parkplatz
unendliche
nahmen.
zün@@
beschuldig@@
ärer
alen,
danken,
überqu@@
Kolum@@
klicken
stung
Text@@
Wortes
Verletzungen
material
Werten
verlor@@
genau@@
Applaus
wahl@@
Schlä@@
dlichen
hell@@
geehrt,
zweieinhalb
Sonnensystem
umdrehen
sprache
Amerikaner,
normaler
Immun@@
Vide@@
geschlagen
erledigen
kompliz@@
glau@@
oberfläch@@
Fragen.
iken,
26
pe
köpf@@
Abfall@@
Korallen
Grün
University,
aufnahme
cal
Schie@@
häuf@@
ante
entfernen.
Protein@@
Juli@@
kollektiven
Urheberrechts@@
vergess@@
Wiederaufbau
voranzu@@
Schau@@
Konsequenzen
beizubringen,
komme,
Chines@@
Qual@@
kern
Wochenende
Rede.
Fünf@@
Poll@@
unde
Relig@@
Sensor@@
Las@@
Zeu@@
lösen?
attraktiv
belohn@@
Geruch@@
komplex.
untersucht,
atom@@
transportiert
nahmen,
diagramm
streng
Regierung.
pat@@
folg@@
Cyber@@
Google,
Dien@@
Source
fällt,
haufen
Stephen
Fei@@
zeig@@
K
Bergbau@@
Gesich@@
(Publikum:
Mik@@
Bedrohungen
Überraschenderweise
Leber
Gän@@
drücken,
haber
White:
Einstein:
K:
Krishnamurti:
it,
uren,
trainieren,
Laptop@@
eingeschränkt
körperlichen
fertig@@
Kun@@
verbreiten,
populär
Rot
eintreten,
alisieren
Dutzende
obere
ums,
verändern?
Sieht
Stör@@
stück@@
Krankenschwester
spielt,
belieb@@
Aufregung
Interessan@@
Kosten@@
passier@@
verdoppelt
tionen,
proje@@
add@@
direkten
Letztendlich
Hinder@@
mitteln
Laboratory
Kenntnisse
bur@@
bequem
amp@@
schaffen?
king
liste
glückliches
geschäf@@
Situ@@
betra@@
Dialo@@
anmel@@
Letzte
St.
schlüss@@
west@@
Jung@@
Fleisch@@
kolle@@
schlafen.
Stille
proben
Glühbirne
Struktur@@
Monster
ster,
vermitteln,
bewerten
dien
Leuten,
Freiwilligen
Journalist
Gesundheitswesen
trifft
Redner
Kalifornien,
tot
unden.
blieben
machte.
12-@@
Frau.
Flugzeug,
gelaufen
ahl@@
Gran@@
"Wo
do
heira@@
sieb@@
hilfe@@
bestimmen.
P-@@
ausländische
ihm.
Vertreter
tauchte
fernen
systems
kündigte
Strecke
fik@@
Intelligenz,
unglücklich
korre@@
wach
LEGO
zy@@
Brück@@
Forschungs-
schlimm
hinzufügen.
Origami
bevorzugen
gegangen,
Beispiele,
Gut@@
kochen
chens
langsam@@
verbie@@
gesagt:
überschrei@@
Hurrikan
kna@@
Verteidigungs@@
Haust@@
küh@@
wass@@
Richtlinien
le:
Drehen
Bücher,
190@@
schwach
voll,
schwei@@
Vortrag
Evolution@@
Oka@@
ignoriert
beängstigend.
umweltfreund@@
veröffentlichen.
Richtung.
besitzen.
sichtbar
Weibo
Red@@
erhal@@
Haar
drucken
zeichnet
paar@@
bezeichnen
wirst,
schlan@@
ppe,
Schwierigkeiten,
befriedig@@
Brun@@
Ehre,
sexuelles
stabile
geheimnis@@
fel
erforder@@
same
Architekt
dreidimensionale
Mischung
Fuß@@
ges.
Speicher
Verschiedene
Nachdenken
yc@@
The@@
ahl
glaubst
Treppe
Delhi
Job,
absol@@
maxi@@
Hör
Organisationen,
Schwein@@
Näch@@
Dete@@
BI@@
Welt?
spä@@
MI@@
Ballon
Vis@@
Zahl,
Essen.
August
verfahren
2001
Sel@@
klingen
Fossilien
entschlossen,
heiraten
Para@@
Port@@
Mobiltelef@@
brachte,
Hotel@@
ss.
cle@@
Bürgerkrieg
atur
normal@@
statistische
Ret@@
Russ@@
gemäß
ktionen,
AIDS-Virus
Kreise
entsprechen
Möglichkeiten.
ets
vermitteln.
Strahl@@
Schweizer
klares
75
Scot@@
chirur@@
Health
stru@@
Puzz@@
rieben.
leiden.
Exper@@
ff
wa
Woche,
spielt.
beobachtet,
Belohn@@
fet@@
reine
fortsetzen
vibr@@
Agency
wirken
nachzu@@
getötet.
platten
schrieb:
a:
kultivieren,
R
ond@@
Reg@@
Bahn@@
Hilfe,
zirkul@@
Rand@@
Pfle@@
Kell@@
grundlegendste
fäl@@
Spekt@@
nutzlos
Chemie
veröffentlichen,
wal@@
Data
Angel@@
X-@@
Tiefen
Wärme@@
Sammeln
strahlung
zerstören.
Verhaltens
Funktionsweise
bung.
Bul@@
Abgesehen
pan@@
derselbe
erfol@@
Absolventen
drei,
übersteigt
japanischen
konzentrierte
unendlich
überprüft
gedreht
Unabhängigkeit
Völkermord
waff@@
Prop@@
nie,
kurz@@
wachsende
Brennstoffe
Wet@@
bedeckt,
g?
Patient@@
Experiment.
pap@@
tert.
stark,
räumen
absolv@@
statistischen
invest@@
beträchtliche
2.@@
s'
staat@@
ore
Graffiti
geschaff@@
schüch@@
gs,
wiederholen,
E-@@
Jahrhunderts,
mag.
Tod.
kontrollier@@
Facebook-@@
unternehmen.
Oft
Flüsse
verschlüss@@
Hut
menge
satz
Plan.
aussehen?
Bergen
korrig@@
Blatt
einzigartiges
kratz@@
Nervensystem
ese
Ferne
global
ausgehen
Asi@@
ige,
typisches
außergewöhnlichen
verzweifelt
zuversichtlich,
Zeuge
lem
Blo@@
springen.
sprin@@
här@@
dete,
ams
vie@@
olle@@
benötigt,
grenz@@
schätze
ht@@
Italien
schlag
ereignete
Straß@@
preis
lernt
notwendige
niss@@
gestiegen.
Zauber@@
Sexual@@
glaubten,
schwierig@@
bekomm@@
gen."
kommen?
deut@@
schöpf@@
endet
syn@@
emotional
Angelegenheit.
Einheimischen
also:
8000
hilflos
läuf@@
Drit@@
stil@@
Programm@@
anfäng@@
Maus@@
wollen?
Immunsystem
dehnt
geh
führte,
frie@@
gewachsen
wachen
greif@@
anru@@
illustr@@
verlangen,
fische
Kommen
sehnen
Vermögen
Gor@@
P:
ideale
Andrew
unterrichtet
vorhin
ue
nicht."
tot@@
enttäuscht
kam@@
fort:
che.
ultraviol@@
Oberflächen@@
ändern?
Identitä@@
überall,
bekann@@
uelle
Veränderung,
mikroskop@@
Dreie@@
Schwangerschaft
zusammenhängt.
sper@@
Dörfer
Quar@@
Roman@@
sar@@
bedeuten
ingt,
ph
wollten.
Glühbirnen
Tastatur
Bar
bedarf
April
sele@@
Affe
Chip@@
simul@@
Chromosomen
anzuwenden.
vergleichen.
Diagno@@
gemeinnützigen
PM:
Wow,
Chirurg
Stammzell@@
waschen
nu@@
Autoren
rechts@@
Menschenrechte
bom@@
recyc@@
Gerü@@
gleich,
überwachen.
neuronalen
k-@@
stol@@
zwingen
Kleidung,
sat@@
extre@@
Ereig@@
Krähen
gewöhn@@
Luther
box@@
ane
Kunst.
ergreifen.
kunst
ausgedrückt
sagte.
Königreich
William
enthüll@@
ator,
Kongress@@
Glau@@
heit"
tiker
Großhirnrinde
enthält.
hilf@@
Lös@@
gebeten
Straßen,
behindert
Millionen-@@
änderungen
Beat@@
Fas@@
Hochgeschwindigkeits@@
entschlüss@@
ähnliches
Dienstleist@@
fließt,
Arten@@
Seiden@@
Mathemati@@
Grundlagen
Koch@@
Labor,
Benzin
Stun@@
verteilung
erwähnen
rest@@
Jack
Vier
allmählich,
Joe
Rechen@@
Maschinen,
vorhandenen
ergän@@
tisch
Durchführung
Stress@@
Ameisenkolonie
Ozean.
dlicher
dichte
ingen,
beläst@@
quo
definieren.
scharfe
Ergebniss@@
verdamm@@
1:
Ruhe
Korrelation
Sprechen
sieht.
durchschnit@@
Anrufe
Handys
lernt,
geführt.
grupp@@
enter
Verbesserungen
angenommen
Koh@@
ermutigen
vollständigen
genehmi@@
könig@@
Chr@@
übermittel@@
Block@@
präsentiert
geplant
Behinderung
Weiß@@
Tat@@
Drama
baut
tanzen
Amateur@@
diskutierten
gefälschte
cool.
verschmutzung
tel,
verbrann@@
kürz@@
faktor
linien
Teller
Ersatz
klingen,
ungs-
Automobil@@
bus
Hindernis
inder@@
Schizophrenie
licher,
überwachen,
Höhen
tigen,
iger,
Scott
Nacht@@
box
&amp;
höh@@
Felder
hell
Medizin,
gst
stete
teilt,
wachte
designer
befreit
förmi@@
Tempel
legten
nachhaltig
Aufrechterhaltung
Verfassung
Zeichnen
klop@@
boo@@
stoppen
Kilometern
beweist,
Infektion
Reduzierung
zeige,
geschah.
fix@@
befestigt
kel,
Schachtel
Jahrhundert.
Milchstraße
gebrau@@
Schweine@@
krebs
obige
leihen
Alex@@
arm@@
Spielzeug@@
beschäf@@
Wechsel@@
Beratung
Schwierig@@
anfangen.
Gefängnis@@
uns@@
Gla@@
Entweder
Benjamin
Autobahn
zeit.
Distanz
Meeresspiegel
leitungen
Schild
Plattformen
stimmte
histor@@
blockiert
förmigen
absorb@@
einheit
Fasern
Bri@@
Tage,
Taschen@@
Sicht@@
Willkommen
este
"In
Dro@@
et?
antworten
hinzugefügt,
Goo@@
anzupassen,
Gewalt,
Urteil
Jahrhunderten
herausgefunden
herausragender
Earth
erschöpf@@
elt.
dire@@
grab@@
unsichtbare
größeres
Szen@@
flach
vereinen
Geschichten.
omp@@
freundliche
Zucker@@
Wunsch,
ein-
enthalten,
bitte,
keiten,
irgendein
sagst,
kultiv@@
Fett
Künstler@@
Partei@@
folgten
korrup@@
är.
Homo
aktiviert
Mustern
ieren:
Sollen
tausende
tests
straße
gers
Beispiele.
Himmel@@
islamischen
sphäre
stammen.
installieren
schlau
Moment.
dü@@
Matrix
Politik@@
gewisses
Volkes
auch:
unzähligen
Sierra
aufbauen,
Bade@@
ktivität
ran
starb.
25000
w.
Olympischen
Toiletten
Kre@@
mechanischen
knochen
gie,
United
Alzheimer
Gam@@
Fundament
Währung
version
gekommen.
Moores
chene
Alkohol@@
verstärk@@
Kanal
demonstrieren,
Mitarbeiter,
Flüss@@
künstlich
Touch@@
gefördert
Makro@@
Verkehr
Japan,
Herzfrequenz
Rollstuhl
Elon
wofür
Philosophen
Wissenschaft.
Wichtigste,
fess@@
Nest
Feynman
droh@@
Freu@@
politisches
Drohnen
terung
öl
Ameisen@@
gewonnen,
ständig,
züge
Vulkan@@
bekannt.
Instru@@
Form.
Klippe
Organismen,
unterstützt,
Atlan@@
V-@@
Definiti@@
rollen
wartete
Versagen
fragmen@@
gebo@@
glücklichen
Ass@@
anzupassen
Grafik
unterrichten.
geringe
betreiben
Zusammenfassung
Scanner
einzusetzen,
erischer
wächst,
Gro@@
weißer
Howard
Pfei@@
Traum,
Kontakt@@
beitragen
hinein
Kühl@@
beweisen.
wirkung
Produktion@@
qualifiz@@
trugen
Fingern
tnis
Büch@@
Umgebung.
personalisierte
komplexere
Bir@@
Anpassungsfähigkeit
dan@@
Mitglie@@
nachdenkt,
Deutsch@@
Ben
angespann@@
Friedens@@
zone
oll
ohn@@
ergibt
Götter
Ki@@
mobilen
umfassenden
Gestern
einladen,
umgeben,
Fischerei@@
Ric@@
Initiative
becken
ober@@
zeichnung
gelähmt
explo@@
Erklärungen
Frem@@
anpassen.
euer
bli@@
öffn@@
schloss
Lösung,
Vietnam@@
Sech@@
Verbrauch
Peking
sauber@@
bende
22
durchlaufen
Kauf@@
Mais@@
Anreiz@@
Kreuzung
gesunken
Umwelt,
musste.
Amy
Geschäftsmodell
härter
Experiments
graben.
Menschen?
verbringen.
tieferes
Schwe@@
auß@@
enzeit
Laufen
schar@@
Erinnern
tte
absur@@
Central
restlichen
formen,
verstre@@
Richt@@
hinzufü@@
mitfühl@@
Tran@@
häu@@
Schritt.
Durchbruch
det?
rey
altern@@
sank
gewalttätigen
one,
Kühe
unbewusst
benden
beigebracht
sitze
kau@@
ht,
besitz@@
gelegen@@
musst,
Tinten@@
saktivitäten
klarer
aufzunehmen.
Designer,
9%
bemerk@@
College-@@
wün@@
hofft,
ge"
zurückzukehren,
derzeitige
ende@@
coole
Ruinen
Lob
verließen
ral
Vorlieben
interessan@@
freu@@
aktivieren
hor@@
lingen
falten
stabilis@@
Schnee@@
Bereich.
Bis@@
tigung
system,
Lehrerin
Einrichtung
Prothesen
va
verlie@@
150000
stitu@@
biologisches
Bin@@
gegen@@
einrichtungen
Untersuchungen
verwenden?
Jesus
warte
Prämisse
brandneue
fär@@
minist@@
gelehrt
rekonstru@@
Rolle.
Gebrauch
fabrik
ausbildung
2,5
Material,
Afrikan@@
neigt
lok@@
Jahrhunderts.
aß
Diskuss@@
universelle
Missbrauch
standards
Verwen@@
fau@@
Messer
waffen
Sorgen,
Juden
glatt
traten
en...
erfolgreichen
Bien@@
überall.
getroffen.
Performan@@
terin
5.
Daraus
moderner
Nic@@
Transaktionen
Ressourcen@@
steigt,
erraten,
Mandela
ition
verwen@@
durchqu@@
sprobleme
British
Kultivierung
8.
graph@@
Elektron@@
Skulpturen
Zeremonie
Zaun
tor
unden@@
Can@@
Arthur
cy
Fähigkeiten.
Geräten
Zehen
weite
nähern,
etzen
Forschung.
Bekämpfung
Uhr@@
McDonald's
betragen
langweil@@
Dienst
alem
schwache
Datens@@
verstanden,
Tony
etz
Brennstoff
schütteln
me.
begrenz@@
Öl,
prägn@@
Chris:
Population
gän@@
verdau@@
stecken.
dunkel@@
abhängig
eigener
onie
ismus@@
wir?
applaud@@
ernstes
ausbrei@@
suchte
besuchten
Beseitigung
singen,
beispiel@@
Beispielsweise
genossen
befreien
Vernunft
Shanghai
qualitativ
Klassenzimm@@
entes
erkennt
gemeinschaft
Molekülen
aufgeh@@
Molekular@@
ct
risk@@
mentalen
reis@@
fehlen
iron@@
Films
Nas@@
beton@@
herunterge@@
Thunfisch
le-@@
te."
Darf
finde,
Strafe
Vorteile,
dere
Klang,
zweiter
ble@@
ite
Weg.
Wert.
verantwortlich.
älen
Green@@
Dy@@
C.
dir.
Freun@@
versteck@@
leer
ignorieren.
Raketen
weinen
erkannten,
verrück@@
Wort@@
Fotos.
etabliert
samm@@
Kategorien
zü@@
Sinn.
materielle
Kriege
organische
Schweine
Hit@@
lokal
singen.
recherch@@
Materi@@
medizinischer
lich!
Tiger
Kilomet@@
breit
zeichneten
ändert,
umliegenden
besei@@
außergewöhn@@
Armut,
innovativen
tt@@
punkt,
verbreitete
liebe,
speich@@
schwach@@
Bestandteil
Taliban
zwischenmenschliche
itär@@
ß,
ich?
Zivilisationen
Fliege
Gelehr@@
ces
erzählte,
Behandlungsmethoden
grundlegendes
demonstrieren.
schwachen
stärken
Statist@@
dest
besuch@@
versorg@@
zustimmen,
einverstanden
Software@@
m"
scann@@
denjenigen
Augenblick
las,
ermu@@
iten,
tung,
ausgew@@
aufgeben.
Gedanken,
bewerten,
dliches
tödlichen
häuser
Umsetzung
ts.
Archite@@
profitieren,
entspricht,
Wahrschein@@
Reparatur@@
dauern.
dimension@@
kol@@
Weiß
mache.
nähern
Droh@@
wider,
Adresse
Versionen
verarbeit@@
Herbst
Garage
labor
Tode
sitzt,
Petrischale
fizierung
Endergebnis
Flugbahn
Schlag
setzt.
braucht.
wilde
Europäischen
Bab@@
Organ
pper
funktionen
stammt.
komplex,
ster.
Feuerwehr@@
gegenüberstehen,
Dekor@@
eröffnet
bean@@
den-@@
Optimismus
Konferenz@@
hochge@@
beschränk@@
Säuge@@
Affen@@
Huhn
ärz@@
ka,
Renn@@
entschei@@
Sich@@
unangenehm
Reis@@
ologisches
-jähriges
Coll@@
Trü@@
Wüsten@@
dit@@
erweitert
Stir@@
fehler@@
ction
Namen,
Islam@@
Patri@@
kreuz@@
schild
ppe.
Weisheit,
BC
Rassen
Herrschaft
absolute
st."
läuft.
teten,
gibt?
informier@@
interess@@
europäische
linge
Mom,
tigen.
Firma,
Ethik
gesprochen.
Jahrzehn@@
studiert.
anwenden.
moralisch
Zeichen@@
Twitter-@@
tolles
Hung@@
Sir
Gates
emo@@
realist@@
wecken
Tool
Welt"
Ressource
unsicht@@
Wiederherstellung
Monat@@
17
Tinte
erkrank@@
Rin@@
Jones
heit?
Mathematik.
Hunde@@
Energies@@
Sequenz
auff@@
uni@@
Verrück@@
Autoun@@
qual@@
achtet
übertrag@@
Inhal@@
chaotisch
ima
Urlaub@@
lob@@
Herausforderung.
Trän@@
fress@@
Unterwasser@@
Genom@@
Angriffe
Verstorbenen
Krisen
Bewusstseins
Chem@@
Schnurrbart
Lebenserwartung
Dschungel
Musk:
grund
schwank@@
Licht.
Woo@@
eindr@@
Bauch
ftung
form,
Genau@@
Vergessen
Verhalten@@
unden
"Er
Zur
USA,
übertreffen
anony@@
bezogen
Individuum
eingehen
gering@@
daten@@
Methan
ensystem
tausenden
dungen,
projiz@@
Cap@@
250000
geworfen.
respektieren
Einzige,
sion.
dal
Massachusetts
uns:
bekommt
wegzu@@
Hochschul@@
dynamischen
Musikstück
motor@@
enger
ewig
verschwand
nimmt.
Klavier@@
kub@@
TED,
anfingen,
Album
aufgetreten
um"
erfuhr
betäu@@
Vergnügen
ionen.
begonnen.
blut@@
bereu@@
Israel@@
hasse
beziehen.
Kerl,
zurückzukehren.
Kunststoff
schwimm@@
Flaschen
ump@@
Schwar@@
zeichne
.Jahrhundert
handel
besitzt
Platten@@
erfahr@@
Krankheit.
Mädchen.
aly@@
erweitern.
"Meine
deckt
Regi@@
integr@@
erwi@@
Partner@@
Pyramide
gesucht
mir@@
Henry
erwartete
ruin@@
lik@@
Flugzeugs
Lande@@
25-Jahren
iesen.
ck-@@
Versprechen
hielt.
jag@@
Universum.
registr@@
Association
Chin@@
gesagt?
später.
vorbereitet,
27@@
Markt,
geeignet.
etablieren
gleichen.
Wochen,
Harry
freuen,
et,
danken.
Wär@@
Bedeut@@
frau@@
Schlafzimmer
Europa,
Famili@@
Marketing@@
Bangladesch
schlugen
Ebene,
Bud@@
kommerziel@@
gescho@@
üblichen
Großbritannien,
scheint.
Ereignissen
äuf@@
strategie
mut@@
Teilnehm@@
Ufer
sauberes
schlafen,
dies.
Com@@
umkrei@@
eil
Realität,
Manifestation
Authentizität
Dunkeln
verwende@@
ausstrahl@@
befest@@
habt,
Einerseits
verschär@@
age@@
Ja
Bush
Stud@@
Studien@@
Bl@@
angepasst
ausgehen,
nicht:
Werken
California,
endlose
Häufigkeit
verkehr@@
Kriminellen
Isol@@
wiegt
Flächen
beweist
künstlicher
IBM
verteidig@@
angekommen
30@@
12000
Nam@@
häufigste
bon@@
Umweltschutz
modell,
ie:
park
mik
Religion,
platte
Besuch
geheime
Sensor
absorbiert
reduziert.
Enkel@@
läst@@
Erzählen
Engineering
verbreitet,
jüngste
hinaus.
Potenzial,
Klasse,
Behörden
protest@@
abgesehen
äres
Modell.
erle@@
abhän@@
Netzwerks
decken
Perspektive.
Flugzeugen
erinner@@
bun@@
Homosexu@@
Hoffnung.
Kandidaten
endlosen
englischen
ohl@@
Osten,
militärischen
Stammes@@
Fünftel
Darwins
"T@@
tu
Zin@@
lands
assozi@@
wil@@
tende
mität
Nelson
Seg@@
frühzeitig
Kliniken
300-@@
identifiziert
optimistische
wechselt
dunkel
'Das
Kanäle
Endlich
brauchten
verbrennen
klüger
unterhalb
reichsten
entlassen
wissenschaften
einsetzen
Eliten
suchten
Wein@@
umgehen.
Landes.
billige
Ideologie
blinde
Fotograf@@
Dafür
Justiz@@
angen
algorith@@
tn@@
gerä@@
giftige
energie,
reifen
raus.
maximale
in-@@
Infektionen
ke,
energie
beleidig@@
Erkenntnisse
Gru@@
Rit@@
analysieren.
station@@
Qaida
schnellste
Urteile
N
maschine,
Namen.
entgegen@@
Spinn@@
wohlhabende
Versuche
Webseite
bung,
Kriminalität
Leber@@
Aufnahmen
verursachte
Tank@@
Pinguin
Spinnen
RB:
Meeresboden
Rohr@@
erien
Infrarot@@
lustige
Naturwissenschaften
Geschich@@
fähigkeit,
Spaß.
Ü@@
Erhöhung
Lebensstandard
theit
Gleichheit
ungssysteme
implemen@@
Veränderungen.
talen@@
Zweige
mental
ala
kab@@
chenen
Stolz
Ideale
nachdenk@@
Fantas@@
Ton,
brü@@
Gelegen@@
wunderbar
Mutationen
Aben@@
fahre
welt@@
sinkt
anord@@
ängstlich
glat@@
Phänom@@
Trick
samkeit
Wert@@
oliti@@
wiederholen.
fabri@@
erwarteten
zuhören
Prin@@
kle@@
erzielt.
ungewöhnlich
gesteu@@
quadra@@
well@@
ungewöhnliche
Lab@@
Kompon@@
lichkeiten
pu@@
stisch
Vo@@
Ähnlich
lin
signifikant
Ohr
ke@@
gestört
leidet
Schweigen
Ängste
Dunkel@@
steht:
bevor@@
kreis
""
ausdrücken,
starteten
verrückt,
Weltkriegs
dar
schm@@
Kalorien
hungrig
Führer,
Tatsache.
Verbraucher@@
erstmals
urban@@
Alt@@
Möbel
Transpor@@
holen.
lenk@@
ki@@
Skatebo@@
fer,
Dilemma
interne
emit@@
sorg@@
ausgezeichnetes
verhaftet
herausfinden
Lösung.
wirksam@@
Afghanistan,
800
gaben,
Herzen.
Setzen
begraben
Spitz@@
Arz@@
Beute
blasen
elten
müsst
hast?
wä@@
verarbeitet
Evolutions@@
Zivilis@@
vereinig@@
"Lasst
verwandelt.
Emotion
Markt.
lern
Äthiopien
2002
Comm@@
de"
pra@@
ziele
neg@@
beschrieb
schreibt
anden,
berühmtes
vorbei,
Witze
Liebe@@
nachgedacht.
Ressourc@@
erschöpft
35-@@
Geschä@@
reibungs@@
flug
Kong@@
Paar@@
Temperaturen
ungssystem,
unsich@@
Entwurf
schrieben
Multi@@
vermie@@
Entwickler
fünfte
Jagd
Argumente
unvermeidlich
tenden
List@@
resist@@
evolutionären
methoden,
irgend@@
eingetreten
Spur
ielles
geschrie@@
station
tierende
legt,
chte,
noch?
Fur@@
Großteil
Graduierten@@
rass@@
Cho@@
Korre@@
uellen
vel@@
reinig@@
bedeutenden
ir
Sonnensystem@@
Gan@@
weiten
Zwischen
multipliz@@
beispiellosen
faktor@@
herein@@
ee
Batterien
seg@@
physiologischen
psychologischen
bla@@
lehrte
R-@@
Gleiche
Psychiat@@
Großvat@@
Einstellungen
läss@@
woran
sein:
Freiwill@@
gründen.
Aufzug
hil@@
entstehen,
dio@@
ker@@
terie
mitteilen
igem
av@@
Besonderes
ards
Krä@@
sam,
Knie@@
ungsmethode
verbrauchen,
fleisch
wechseln.
öst@@
Fig@@
legal
DNA,
hassen
bel.
früheste
tiefes
jähriger
reagiert
position@@
gesammelt,
eindringen
berühm@@
hl@@
Böse
tigt,
meistens
verbringe
Emp@@
entkommen.
Nation@@
annt
Rel@@
Landes,
begegnen
Bevölkerung,
Banken
Stift@@
"P@@
tons
vermittelt
Angst@@
Mön@@
Diskriminierung
weitergegeben
finanziellen
anf@@
verstanden.
Verglichen
B-@@
zufäll@@
unvorherseh@@
Indian@@
Ol@@
Marker
192@@
Stuhl@@
quantifiz@@
eintauchen,
ältesten
goldene
zuvor,
Chirurgie
Gefahren
Eng@@
Scien@@
mentale
Kennedy
dicht
latein@@
tör@@
Familien,
Zukunft@@
Netzwerken
Verstehen
Programmierer
gestiegen,
Weltkrie@@
Grab@@
Metaphern
Kohlendioxidemissionen
ungsprozess@@
erie
eur@@
Netzhaut
Verstehst
Errungen@@
Strei@@
Dokumente
Strom,
Käse
loses
Ölp@@
samen
wachsenden
Flusses
Weihnachten
Sprichwort,
Hil@@
Fremd@@
wes@@
skal@@
Netzwerk,
L:
gelesen,
Penis
Multi-@@
23@@
2030
prior@@
Vagin@@
verpas@@
Ebola
normal.
o:
Favor@@
unten.
mot@@
Quallen
Garnel@@
Ähn@@
Tiere.
system.
Bär@@
trei@@
machbar.
eingehen.
endsten
repräsentiert,
angenehm@@
klass@@
vernachläss@@
einig,
Wollen
stärkere
Comp@@
Vergleich@@
Intervention
allen!
Frag@@
typ@@
kapazität
Erfahrungen,
"D@@
Sitz
gelan@@
sich:
teilnehmen.
verstreut
Abschluss@@
rationale
mieren,
häufiges
betrü@@
Legen
Sir,
Feedba@@
Einkommens
Arbeitsk@@
erhält,
erhöh@@
stil
Lieben
hört,
reich,
ordentlich
eben@@
visuelles
profi@@
Sinn,
hinzu
passt
Hall@@
agen
kann:
Hex@@
Blau
kanal
neugierig,
Sprecher
umgeb@@
Brian
daran.
Woh@@
Expansion
schuhe
Lebensmittel,
Kevin
friedlich
Einsamkeit
wählten
verstehen?
Ner@@
verwalten
geln,
Frühling
verlässt
vention
begegnen.
ernen
ausgestor@@
gei@@
Kooper@@
Kampagne
promin@@
fortschrittliche
gedruckt
zie@@
Gläub@@
stag
Warte@@
engagieren
Zentren
ke.
Polizeibeam@@
Schlacht
betreffen
Intensivstation
aufzugeben,
erlebte
gebühren
erzählten
Heute,
zurückblicken,
beherr@@
splat@@
stelle,
erfolgreicher
verdien@@
7.
bedeutsam
kleinste
gekauft.
harmon@@
zusammenfassen,
Slo@@
mär@@
baus
anerkannt
gefangen.
Republik
Katastrophen@@
netz
schäd@@
anfällig
Dru@@
ktes
Akt
ville
Luxus@@
Nachricht,
gesundes
Behandlungen
stark.
Typen
ologie@@
ose
verschwindet
fort,
bedeutungslos
rieb@@
passiv
jetz@@
Wurzel
dokumen@@
Xia@@
Kons@@
kurse
Zahlen,
studierte,
Kugeln
zip@@
Herrn
Fan
Gemäl@@
obje@@
halten?
Bedürfnis
anden.
darstellen.
visualis@@
Brille
Auflösung
Red
"War@@
platzieren.
Front@@
Kraft.
Brustkreb@@
Chemik@@
Apropos
Eimer
offensichtlich.
ungsmittel
Priorität
gige
Finden
Schriftstell@@
gemein@@
bemerkte,
Kreis@@
Angeles,
taten,
gol@@
läuft,
ak
geschäft
bü@@
extrahiert
Drug
Elektroden
Nervenzellen
Group
Hö@@
stellte,
frage,
worden,
gesunder
bewältigen
Mist@@
Zustimmung
Habe
Ernähr@@
Gesundheit.
Hobb@@
ald
breitet
gemischt
Punkt.
ekel@@
infiz@@
wissenschaftlich
genau,
vor:
CO2-Emissionen
eingebettet
Schätzung
wahrnehmen
ielle
praktisch
muslimischen
han
Unruhen
politisch
entfess@@
kultivieren.
winzige
Ressourcen.
kop
Blume
Zweifellos
zieht.
Korrup@@
Projekte,
statist@@
Männer.
doppelte
startete
eten
S,
car@@
Benzin@@
samer
verklei@@
unsichtbar
äus@@
standardis@@
Stimme,
"Un@@
Chemotherapie
Jugendliche
tetes
ing"
Sing@@
gesunken.
Zykl@@
übertrie@@
Atombom@@
ausreichende
liest
illegalen
Einkommen,
stoppen.
gesetzt.
att@@
24
unternehm@@
Roboter.
Komfort
Textnachrichten
unvorstell@@
bemerkenswer@@
stirbt
Unterwass@@
illeg@@
Neuron
forschen
Grand
ausreichend
Deck@@
süß@@
Atlanta
Ray
zu?
Windenergie
finden?
benannt
Will
unterschie@@
vorbereiten,
igkeit@@
Wachstums
Wide
monat@@
Motoren
Matt
ausprobiert
demokra@@
Supernov@@
zerstören,
teuren
Abwasser
Engel
lan
Gefäß@@
Pul@@
Top
Fruchtfliegen
unterirdischen
Phosphor
einz@@
analyse
Süda@@
ES@@
"Second
viel.
ernähren
aufnehmen,
greifen.
öff@@
El
leiten.
aufstehen
traurig,
ernsthaften
Eigenschaften,
Prof@@
gefühl@@
sogar,
Kritik
Ran@@
Bereitstellung
igten
Kindergarten
hervorragenden
Einkaufs@@
leiter
vorschlagen,
sinnvolle
Magnetresonanztomographie
geformt
verfü@@
stimul@@
Club
wan@@
enti@@
Handgelenk
Biotechnologie
Druck,
Mos@@
verwurzelt
Dörfern
Melodie
Chat@@
Punk@@
test.
profitieren.
rezi@@
ben:
Pro-Kopf-Einkommen
berücksichtigen,
grund@@
Wettbewerbs@@
$100
einkommen
Renditen
gestartet.
expand@@
well
kreativer
Teil.
spielen?
Bie@@
gewohnheiten
Anpassungen
Rhyth@@
Si@@
oder@@
Ähnliches
Hilfe.
verborgen
unser@@
Solda@@
Hände,
Gur@@
schwimmen,
schluss
folgt:
1/@@
Zoll@@
line
wartet
magisch
Meer,
Imper@@
ländliche
Somm@@
scheine
haus@@
Dampf@@
Erkundung
stellt.
ktur
Cur@@
umsetzen
origin@@
rischer
lila
Fischer
hafter
schwimmen.
organisationen
führen?
hart,
unterscheidet.
aufgehört
D.C.
höflich
Verletzlichkeit
yo@@
ut.
Vater.
gern@@
nam@@
habe?
zunehmen.
position
blick@@
Morgen@@
kennst
Verkäufer
romantische
unterstützt.
hinterließ
spenden
kosten@@
erscheint.
programme
seltenen
ge:
spiegeln
Ökon@@
Landwir@@
Anwesenheit
schafft,
Wandels
Krieg@@
verzweifel@@
kletterte
aufwach@@
beides
annehmen,
gerichtet
atmen.
splan
stap@@
nimm
zerquet@@
teln
effizien@@
Start@@
Wellen@@
rückwärts
fordert
Funktionalität
schmel@@
ry,
bietet,
mechanismen
leben?
alter@@
Himmel.
gebäu@@
Flugzeu@@
Phil@@
Stärken
Wolke
tust
Verteidigung
Ding,
Kind:
fernzu@@
getäuscht
demonstr@@
Mill@@
äng@@
Leist@@
Leh@@
ym@@
häufige
verkauft,
ov@@
Platz@@
Lücken
grüner
fragt
Räder
Ergebnisse,
Tod,
Spezies,
Weiße
klein.
Geographic
5000-@@
Anführer
app@@
behörde
Norda@@
Hormone
stoppen,
dienen,
etwas.
Alli@@
ppen.
vollständiges
geräu@@
Wildnis
Tepp@@
humanitäre
demselben
Schwei@@
ums.
schauten
tionen.
Sauce
Zehn@@
hat:
Pfer@@
Prothese
kompletten
verbundenen
kollaborativen
vorzustellen.
zurückzukehren
bericht
MRT-@@
ysi@@
Patienten.
ktier@@
di
genie@@
produkt
Vit@@
ätze,
Gri@@
unerklär@@
elimin@@
schreib@@
Autos.
Award
Toiletten@@
vertrieben
ila
Assist@@
anstren@@
Gedächtnis@@
Gehirns.
sions@@
bösen
Argum@@
Ima@@
ertragen
Volk@@
Stoff@@
brachte.
mit.
Glob@@
selb@@
Soldaten,
19.@@
sam.
Buch.
auslö@@
sah.
widerstehen
fte,
Fran@@
werden."
Schwerpunkt
gesammelt.
jeweiligen
aufregend.
Jahrzehnte
99
Vieh
obi@@
Personen.
Ni@@
verring@@
Box@@
darstellt,
aber,
ga
rücksichts@@
etten@@
erreichten
eingerichtet,
Dingen.
Modells
benann@@
ier.
gas@@
Zeitschrift
kombinieren.
Sekunden.
verwurzel@@
1998
Höhlen@@
Telefon,
überwacht
Klimaanlage
Stunde,
igkeit.
vorherseh@@
sende
Zir@@
Realität.
behalten,
überzeugen
lachen
erkenne
flachen
einfacher,
500@@
Studie,
Berater
Air
Pyrami@@
verschrieben
Gewohnheit
sauber
derjenige,
Geno@@
Silizi@@
übertreffen.
licher.
Rett@@
Leiden@@
Bereiche,
ordnung
übertragung
miert
gegensei@@
19.Jahrhundert
simulieren
Amp@@
Sy@@
unerwarteten
Maschin@@
Quadra@@
toten
+@@
physiologische
Alice
Angesichts
cke.
Mobil@@
Broo@@
fährt
Zentr@@
künf@@
Krieg.
ägyp@@
simulierte
Skelettmus@@
Tiefse@@
Kamera,
g-@@
Bill@@
rücken
Erstaun@@
Grad,
exquis@@
Revolution,
Beschäftigungsmöglichkeiten
fäll@@
verlangt
Pause
Verbrech@@
jagen
Freundes
geschichten
fort.
Bildung.
erworben
replizieren
akzep@@
Entwicklungsp@@
Klassen
investiert,
effizienten
fähigen
attraktiv@@
Ansatz,
verantwortungs@@
konsist@@
ungssystem@@
organ@@
eingeben
ausgelöst
Tochter,
Runde
Held
?@@
zerle@@
Bio-@@
ie?
dick
demon@@
erzählt.
begegnet
längere
kompri@@
wählen?
"Bitte
stehlen
niedrigem
alteten
langfrist@@
Selbstbewusstsein
heilen.
ve,
hierher,
gehört?
Genauso
ler.
professioneller
Alex
passen.
Ecke,
umgehen,
beur@@
Mädchen@@
Google-@@
anlage
sinken
anzugehen.
verpack@@
glicher
flächen
zung
impor@@
Gef@@
Anfang.
töricht
abgeschlossen,
Universitäts@@
Verletzung
fläch@@
veraltete
arten,
Gebiet,
zerbrechlich
konzentriert,
Internationale
Ear@@
gelö@@
gelangen,
Transaktion
zugenommen
21
x.
"Mein
vergewal@@
tat.
einander,
zusammenarbeiten.
Rout@@
Schultern
lehn@@
vieles
erlangen.
Wachstum@@
Rationalität
15-Minuten
fair@@
Kie@@
Patent
konkurr@@
ätz@@
biz@@
Antwor@@
trainiert
aufre@@
machen."
Ägyp@@
berechnet,
impliz@@
Institutionen,
schung
betreiben,
überlegen
nö@@
Linsen
Glücks@@
verbleibende
störungen
Motiv@@
Recht@@
ativ,
grad
Eigent@@
Ziel.
behaup@@
bewirken
treiben,
Asp@@
Kondome
zerstört.
lebte,
esischen
legung
Entwur@@
Seattle
Anordnung
mittlere
Vororten
mieren.
verur@@
robu@@
ce-@@
iell
y!
ist;
atme@@
ikon@@
Kristall@@
erstreckt
Vorderseite
"I@@
bezo@@
Ozean,
stecken,
angeschlossen
geograph@@
Himmel,
klassischen
Illus@@
isier@@
lung.
Blick@@
Geräu@@
Deep
ckt,
Software-@@
hen@@
eingetreten.
Chris,
Ech@@
Vorbereit@@
Koll@@
Jenn@@
darstellen
Phantasie
deter
Slogan
zuversichtlich
wütend,
Die@@
unvoll@@
Richtung,
Gemeinschaft@@
feld,
Nebel
Liebe.
abstra@@
unsicher
konzip@@
Gras@@
äne
grä@@
Tö@@
hervorra@@
Quer@@
sprozess@@
Tox@@
Männchen
zeigte,
Gutes
verpflich@@
2020
Romane
frei,
famili@@
feiern
feiern.
tierter
Reflex@@
ut,
fühlst,
Wandel@@
Meetings
bemühen
tur
School,
Is@@
betrieben
beobachtet.
berau@@
10-mal
pt@@
zyklus
anhalten
Bess@@
Opf@@
natür@@
Früchte
Gesamtzahl
Analysen
Immobilien@@
ankamen,
Lehrbücher
Macht.
Japan@@
Flö@@
une
Rente
Dalai
tun."
sprit@@
Liebes@@
willkommen
wandte
Chinesisch
Mein@@
Invasion
Monate,
ias
Mädchens
Produkt,
oph@@
überrascht.
vielleicht:
Fäl@@
nachah@@
tisch.
unfair@@
Erfahr@@
Brut@@
Kredite
atz
Sonne.
mau@@
Smart
Aust@@
Kürzlich
Nichtregierungsorganisationen
organisieren.
Verhandlungen
überschreiten
Schle@@
Schulden
Konto
Herz,
Etikett
Osta@@
Respe@@
überqueren.
gische
Schnit@@
Restauran@@
Volumen
Klassenkameraden
war's,
Erfolg.
Hem@@
lustig.
verschwenden
Lunge
Bevölkerungswachstum
Geist,
Kalifornien.
isoliert
Bedeutungen
Dog@@
Belastung
Bol@@
überqueren,
gin
Empf@@
Zeugen
exp@@
Alan
"Komm
gestaltung
Sem@@
GPS
By@@
angenehme
schießen,
ara@@
Bewegung,
Not
Nadeln
Jun@@
fanden,
Bedingung
erwär@@
auszugeben,
Kette
Kalk@@
dimensionalen
Schaum
Kana@@
Dau@@
Gesetzen
nein@@
Hüft@@
Programm,
Territorium
Prüfungen
geschätzt,
reflektiert
geraden
erhol@@
TED-Konferenz
Brasil@@
Flücht@@
Anwäl@@
realis@@
zweifel@@
Bewertungen
verringern.
Washington,
elem@@
H
Übersetzung
wütend.
drahtlosen
Vagina
Charlie
Rum@@
Neandertaler
Pat:
Gall@@
Videos,
erhe@@
Stock@@
ström@@
völl@@
ernst,
ys,
lächer@@
teren
Fischen
gebor@@
gebunden
entzün@@
atten
wesentliche
erhöht.
kore@@
Betrachtet
beispiellos
früh@@
Mittelpunkt
technischer
ausmacht,
abhängt,
Schlagzeilen
richtungen
Feld@@
Blöcke
wöch@@
neugier@@
versteckten
hren,
Kunstwerk
japanische
Denn@@
ist!
Bran@@
Investiti@@
hindern,
Einnahmen
kurzfristige
Bürgern
aktives
Super
musik@@
halte,
projekte
verständlich
Chaos.
Kombin@@
musik
Räumen
Elektrizität
schufen
East
überlebt
taub
Leiden
passierte,
dumme
schenken
Reporter:
Transformati@@
sagt.
Fallschirm@@
illen
gefangen@@
transportieren,
Urbanisierung
verteil@@
itar@@
Mittag
Garten@@
Dies@@
stor@@
leben@@
Konzept.
täuschen
ze.
Fli@@
kos@@
Warnung
Verschmutzung
raum,
wette,
Abbildung
dete@@
iche
eintauchen
brillan@@
tiefsten
kannte
E-Mail,
hinterlassen,
Absichten
zimmer
eins,
Kommunikation,
Grü@@
Papier.
chao@@
konstan@@
I-@@
Königreichs
Prei@@
Rohstoff@@
zweitgrößte
bett
Posi@@
Lehre
neutr@@
verbessert,
Kri@@
Meditation
Wörtern
Geduld
fehlt,
Konflik@@
Gegenteil.
alternative
ere,
führende
erstklass@@
wettbewerbs@@
herzzerreiß@@
Apothe@@
Cat@@
darin.
Sud@@
"Ma@@
U-Bahn-@@
moder@@
bekämpfen.
ungsprozesses
erfinden,
soeben
Reparatur
minus
ganzem
schönsten
schrecklich
Vergangenheit.
schuldig
Brie@@
install@@
wand@@
Kleider
ausdrücken.
Ries@@
Experten,
subtilen
tigem
E-Mail-@@
ai
satzes
konsistent
kräfte
Learning
schlimmste
vorbereit@@
äm@@
schwitz@@
Väter
Ang@@
spezialisiert
Gemälde,
10,
Merk@@
Viel@@
Gefängnisse
23
Schock@@
Sturm
dition@@
zunehmen,
hinteren
kamen.
Hormon@@
jahr
ter:
Seife
t".
persönliches
leiten,
zusammenhängen.
400-@@
Liefer@@
Leucht@@
Tages@@
Stadtzentrum
Dub@@
nationaler
Ausdauer
Sprung
Insekten@@
Karr@@
(der
Ultraschall@@
zellen,
Halt@@
Taschen
regelmäß@@
olle
verantwor@@
Personal@@
Insekten,
Gramm
Gemeinsamkeiten
bankrott
onen@@
Schließlich,
Tsunami
Beweise,
stehenden
erwachsene
Gedächt@@
Län@@
Hölle
Bombe
Statue
Ernährungs@@
Streitigkeiten
Weltanschauung
warum,
zöger@@
erische
Koran
nick@@
vorteil@@
unbestreit@@
Bronx
fein@@
kette
Führern
entlich
erstreck@@
Toleranz
Thr@@
herab@@
dro@@
abzuschließen.
Blum@@
etter
künstlerischen
Europa.
k:
bewahren
izi@@
Ebene.
Extra@@
Forschern
General@@
Ersten
Fonds
ße,
artige
Reise.
zogen,
Quadratmeter
diagnostiz@@
Van
trink@@
ker.
Hinweis
Simulation
gestohlen
ewige
nehm@@
übermäßige
Telefone
Wasserk@@
ell.
Pizza
um-@@
werten
Buchstab@@
ger-@@
Rätsel@@
Zigar@@
versuch@@
weithin
gesün@@
Wä@@
~@@
kenntnisse
Fertigung
Streit
gespro@@
Amerikanern
Informati@@
vorausgesetzt,
Genesung
Freundschaft
Parasiten
Ira@@
Gene,
B:
ierst,
Hautfarbe
tran@@
Vert@@
aufgewachsen.
gebildet.
Einkaufszentrum
gelegt,
ler-@@
Streifen
läch@@
Innovation@@
rise
Apfel@@
hergestellt,
Bewegung.
ikan@@
chemischer
trennen,
gefallen.
Blitz
toll!
Gesetz,
wählte
vorbereitet.
Animati@@
unterwegs
Annahme,
Fernbedienung
Verschwendung
übrig.
Ras@@
Ingenieure,
185@@
Zehntel
rig@@
Wurzel@@
welt.
riesiger
ismus-@@
untersuchten
gramm
alität.
beruhig@@
Baumwoll@@
Nachteile
Fotograf
Linie,
Nächstenliebe
Day
Modelle,
Design-@@
Trauben
bot@@
gewöhnliches
Hyp@@
Amei@@
cc@@
Spinne
Tieren,
Sonnenlich@@
Säulen
Platte
Sün@@
gang,
Träger
Zie@@
Entschlossenheit
einziger
revolution
Weltwirtschaft
einstellen,
erfordern,
dreieinhalb
Chile
erhalten?
tieren?
vest@@
burg
Karriere@@
5%.
Tradition@@
Kore@@
überzeugt
übliche
führenden
Biokraft@@
120
130
verkürz@@
Behandlung,
behalten.
ation?
Jugendlichen
statt,
tigsten
spir@@
frem@@
Alltag
ile
Diam@@
Tante
Treff@@
Moral@@
z:
aufgegeben.
aufregende
Milliard@@
technologie,
gießen
berührt,
schir@@
beantwortet
hinterlassen.
zerr@@
Carnegie
setzen?
Vorschul@@
senken,
Arbeitskräfte
bestimmt.
Durchschnitts@@
gestaltet
Sym@@
sem@@
teile,
stische
extrahieren.
schreien
frika
Zufall
zeichnet.
gru@@
r.
idealen
Selbstmor@@
tiefere
nächster
Ignoranz
dest,
fertig.
schüttel@@
klarstellen,
Bürger,
Rede@@
dünn
lungs@@
händler
ausgehend
einander.
Smit@@
Vom
unsichtbaren
Best@@
Stand
diskutiert,
Hauptz@@
Kurven
transportieren.
stischen
Little
junges
ne.
breitere
markieren
danken
geben:
Millionen,
Nigeri@@
Brüdern
zurückgegangen.
bereitet
Pakist@@
Kosten,
Brief@@
fotos
altet.
geschick@@
sammel@@
Prax@@
inger
27-@@
geleistet.
mächtiger
Sher@@
Umgeb@@
identifiz@@
Berichterstattung
traf.
gestorben.
späteren
ableh@@
tapf@@
Beschwerden
Fläch@@
liber@@
traurige
aufzugeben
Eröffnungs@@
hunderte
kurve
"Se@@
haft,
Dopamin
Körpers,
Schlussfolgerung,
fest.
tiere,
häss@@
been@@
Problem:
stieg,
Strö@@
Paare
langsam.
Bedroh@@
fügte
rieb
Abfälle
Ökosysteme
Miniatur@@
sind@@
gesellschaften
umfeld
Gesam@@
Parlaments@@
kluger
körperlich
Komponente
liz@@
Studien,
kt?
schmil@@
brauche,
industrie,
Publikum.
lade
Keller
Lichts
Bewei@@
Dre@@
ssysteme
viermal
befreien.
verbrach@@
unbemann@@
schönste
einsam
gefüllt,
Jeff
Frequenz@@
Fan@@
keinem
eröff@@
du.
erlang@@
andererseits
Stimme:
offiziell
Verb@@
ingenie@@
Fortschrit@@
Umwandlung
zogen.
itä@@
formen.
serv@@
kraft.
Geschlechtsverkehr
ausdrück@@
alisieren.
Dynamik
sucht,
mer,
umen,
bewegte
Dokumentarfilm
halbem
warm
ben."
appen
gelb
mie
geleitet
profit@@
Pharma@@
vorgeschlagen,
Konver@@
bemühen,
Stimulation
wiss@@
se?
Brooklyn
gefährlichen
tiefgreifenden
Schweiz
Einzigartigkeit
frühere
abschließ@@
geschla@@
Gemeinschafts@@
aßen
behör@@
Pferde
hren@@
ar-@@
mat
Flori@@
beleuch@@
bedien@@
Parks
Tumore
Situationen,
teurer
radio@@
gerät,
gedruck@@
wiederherzustellen.
vermehren
scho@@
Kurzfilm
Albtrau@@
garantieren,
wie,
verhalten,
signale
Wes@@
wirklich@@
ermor@@
gewähl@@
verst@@
änger
chirurgische
Dorf,
Dorfbewohner
Kau@@
ia.
lam@@
Schuh@@
Englisch,
unbekannt
Einfluss@@
beigebracht,
Vers@@
Gewichts@@
1968
schläge,
Darlehen
Lea@@
Klingt
klicken,
gescha@@
Ax@@
Mond@@
Reichen
weisungen
normal,
Weltgesundheitsorganisation
Dabei
Maler
Perio@@
gie.
konzentriert.
Chromosom
.c@@
mün@@
Sonnenenergie
2012
beliebte
Spin@@
ärm@@
County
Spiegel@@
Kopfschmerzen
antrei@@
Ged@@
Mainstream
Künstlern
Hund,
ven,
Columbia
geist
Musch@@
Sympt@@
ventions@@
9.
Okay?
erung,
ausgegeben,
ausführen
ration
Notaufnahme
tungen
Marihuana
zept@@
logi@@
0000
Square
Französi@@
Hang
Sek@@
Stei@@
Komm@@
Folien
As@@
perfektes
Za@@
effektiv.
Treibhausgasemissionen
1996
französischen
digit@@
Eisschicht
verstär@@
ini
Kupf@@
Abstimmung
Demokratie,
pri@@
Watson
gesteuert
nützlich,
Rauchen
st-@@
Flederm@@
deswegen
helfen?
ton:
Empfänger
Krimin@@
gies@@
erledigt
mehrerer
Lim@@
mas
therapie
Luftfahr@@
Herzinfarkt
itäre
ox@@
Hass
Touristen
Wilder@@
steuert
Power@@
Gewohn@@
Sklaverei
best@@
Simul@@
Bande
Spinnenseide
Tiefsee
erkannt.
gründlich
an!
keiten.
Laser@@
drin
verlänger@@
Katastroph@@
Schlimmste
uns?
Schrit@@
manipul@@
Entscheidungsfindung
glaubst,
unendlichen
Kontroversen
Lernens
einheit@@
angesehen.
fassen
beurteilen
beseitigt
gefäl@@
molekularen
ängt,
gefährlich.
Engagement
wertvoll@@
ica
halle
sionen
Einwanderer
Fluch@@
gelesen.
Windo@@
stärkste
fossile
Y
erem
lebendige
Tendenz
gering
Nachbarn,
abend
Lou@@
stel
nützlich.
Welcher
wechselte
wissenschaftliches
ür
staatlichen
Vorteil,
bekommen?
Vollzeit@@
imitieren
alischen
Inhalten
ewi@@
sprachen,
Ausdrücke
gewünschten
Avat@@
differenz@@
langsam,
Interessantes
punkten
gern.
geschafft,
innen.
Wohnzimmer
Einschließlich
steten
ße.
diplo@@
Life
Metall
produzierten
Millimeter
Verpack@@
ernähren.
stin@@
Hafen
gelangt
ktiver
geometrische
rang
mme,
internationaler
strom
griff@@
vertrauen,
dens
berichtete
High@@
einrichten,
eis@@
ausgestorben
Vitamin
ograf@@
muslimische
Pra@@
Interessant
Sonntag@@
Kuch@@
trö@@
seln
wieder:
gelehrt,
steh
traditioneller
Kommand@@
gelassen
22@@
berichten
Monat,
besiegt
Dimension
Beobachtungs@@
Beit@@
bewäss@@
Lateinamerika
nutzen?
1973
orte
vergangene
Informationstechnologie
stechnologie
Produkts
dete.
Domin@@
Berges
mmen,
Prototypen
ung."
ignorieren,
bert
Falten
Beobach@@
nein.
telefon@@
Refer@@
line@@
Mom@@
tags@@
ten;
verlorene
Squ@@
direk@@
Cir@@
Marken
erungs@@
bequem@@
900
gets
pend@@
Museums
museum
rate,
Ag@@
bevölk@@
ro
barkeit,
Vorher@@
rank@@
Unsinn
schten
befreien,
Din@@
os.
holz
überraschte,
erte,
trennen.
bricht,
Briten
Blue
leichten
eingehen,
raus
Privileg,
Spor@@
kro@@
stheor@@
Standard-@@
unnö@@
Sign@@
zuhören,
müs@@
mak@@
verz@@
Archä@@
Diesen
ms,
Titan
schme@@
kollidieren
vorsichtig,
unfähig
Nährstoff@@
sagst:
Region,
Fle@@
Formen,
altung
Zylinder
Waff@@
Zivil@@
trinken.
Zelt
verbrannt
Gedanken@@
region
Menschheit.
C:
erkrankungen
etes
habe:
Manchmal,
kuchen
eren,
Systeme,
Soldat
gleit@@
Preis,
erwer@@
spezi@@
k"
Ther@@
theoretisch
lösung
Befehle
Politiker,
Patente
diagno@@
ologen,
Comic
Beispiel@@
effektiven
pi@@
beiläufig
Audio@@
ränken
vorhandene
gespen@@
reparieren,
bestäu@@
typischer
Kreaturen,
Ökologie
Schleier
gelassen.
Flüchtlinge
55
halfen
dorthin,
Skelett
ay@@
generiert
sensor@@
untätig
drehten
Darauf
Bringen
Ruhestand
spiritu@@
vergewaltigt
unterirdische
wahr,
Zufriedenheit
extremer
Menschenrechts@@
zuverlässig
Chirur@@
brut@@
verdi@@
Leder@@
innen,
Nike
jüdischen
Ky@@
verein@@
Infektionskrank@@
intelligen@@
wohl@@
riecht
fang
Zeilen
istor@@
Dateien
grauen
myth@@
entur@@
Konkurrenten
weisung
illa@@
seltsames
Professoren
kritische
Glauben@@
sbe@@
use
andel@@
Fahrt
Ros@@
Verfahren
Spreng@@
Contain@@
üll@@
oft.
Zuschau@@
Inspi@@
Haushalte
"E@@
28@@
Hotels
simulierten
Jam@@
Größe,
subtile
verlass@@
Genetik
Atombombe
gas
Mary
übersetzen
Pit@@
thes@@
Brown
chaotischen
Form@@
Skulpt@@
Oberfläche,
Nein
offiziellen
Gesetze,
Julia
Lastwagen
erzeugt.
que
form.
immer@@
by@@
Passagiere
illegale
dienste
spart
ausch
behandelt,
tret@@
bleibt,
lebten.
effektivste
gebenen
fru@@
punkt.
Mer@@
Vögeln
rach@@
missbraucht
ät@@
winzigen
Kalten
q@@
veranschau@@
licht@@
mag@@
Meinungs@@
räuch@@
Regenwasser
Alb@@
interpretieren
eren.
Salz
LKW
umen
Zug@@
navig@@
ha
matisches
Zwangs@@
Wahlmöglichkeiten
Australien,
ule
architektonischen
te",
itären
liegende
beträgt,
artigen
temperatur@@
Teilchen@@
ehr
Kais@@
est
Teleskope
nackt
Kenia,
Malaria-@@
(ein
heilige
univers@@
Wunde
entstehen.
Schwankungen
Zielen
Neutr@@
sach@@
stoßen.
beträgt.
Drachen
ffer@@
schneiden.
Sarah
Bern@@
Beam@@
Mart
Kernkraft@@
Absolut
verdäch@@
Higgs-@@
Foie
Regenwal@@
fluss@@
Pazifik
Schwefelwasserstoff
Gelände
Quadratmet@@
Lebensformen
igkeiten
gesp@@
Artenvielfalt
plötz@@
Betriebssystem
e)
erzeugt,
Fortsetzung
Musikinstru@@
eleg@@
Flammen
Wissens
arbeits@@
Singapur
gerech@@
deutschen
Modellen
ungst@@
vergleichbar
gefahren
Schmerz,
Gehirnaktivität
nar@@
siven
demonstrieren
7000
Ann@@
Pur@@
Jane
"Re@@
Zweig
olog@@
verbundene
ek
genetischer
Sequenzen
Geschenk@@
Feld,
pfei@@
aufhören.
angeru@@
ders
Lebenszyklus
papier
ies,
versicher@@
"Natürlich
Bost@@
reis
gleichmäßig
mmen.
Wähl@@
Körpersprache
manipulieren
spiele,
gerich@@
LED-@@
lehrt
Nachhal@@
t)
ra,
Mikrof@@
roman@@
überwin@@
Unwissenheit
gepostet
Erstellen
weinte
sters
Veränderung.
News
Mich@@
schließt
irr@@
küste
pazif@@
tru@@
wickelt
benutzer@@
anlagen
fühlt,
sehn@@
dose
genutzt,
Unglück
film@@
betreiben.
verschwunden.
magischer
grenze
östlichen
Initi@@
Halb@@
massive
mt,
Muss
tete.
Haushalt
gien@@
erfuhr,
ierend,
runter@@
wiederzu@@
voll.
findet,
verarmten
Wirklich,
bol@@
radik@@
gegenüberstehen
blich
ges,
gs.
Ergebnis.
zuzuhören,
bewahr@@
Ernte
Märkte
tet?
Marktes
zuverlässige
Verständ@@
austausch@@
entstanden,
Referenz@@
hieß
Harv@@
21-@@
altungen
Mäusen
Tisch.
Altern@@
Ingenieuren
CEOs
stö@@
Anf@@
überraschend,
zuzuhören.
gewohn@@
angetrie@@
richten.
Lob@@
Wochen@@
Monats
Eintritt
kommuniziert
boden
offener
struktur,
konzent@@
meister
drit@@
Flexibilität
Diagramme
konzept
Installation
filme
Frühstück
technologischer
Grund.
argumen@@
Zellen.
Schwimmen
kalte
schwamm
iPhon@@
Erbe
reiste
besprechen.
betrachtet.
Tier,
Sum@@
sichtbare
Erinner@@
3:
Absicht,
Komplex@@
Einfach@@
sätze
elemente
verstehe.
Plattform,
Verfügung.
unverzicht@@
Vorbild
ausgebil@@
Scham@@
flexibel
wertvoller
eingestellt
bestätigt,
Frösche
hören?
sexy
manchmal,
lebten,
Rezep@@
komfort@@
Tie@@
eingesperrt
Einschränk@@
rennen
Buck@@
Clo@@
unbedeutend
anor@@
altet,
chem@@
Indikatoren
Maus,
Film.
Down@@
Liter
Konsequenz@@
Wohnungen
trover@@
geschlossene
kultureller
Einladung
Familienmitglie@@
Acc@@
eröffnete
konsul@@
woh@@
we
fikation
Unten
tter@@
befand
stabil
balanc@@
hre
zunehmendem
begeistert,
Haft@@
"Be@@
ted
Handfläche
Jungfrau
Zunge
befin@@
Gegenwärtig
Ei@@
leck@@
Präsidentschafts@@
Larry
Ruhm
geheimen
Mindest@@
haft.
Seri@@
dent
Green
mittlerweile
Wass@@
Phasen
Stunden.
Primaten
unbegrenz@@
72
Bestrafung
vielfältigen
ethnische
Konkurr@@
Fehler.
Halluzinationen
tag
beut@@
beunruhigt,
billigen
Abkürzung
inspiriert,
zykl@@
jüdische
breiteren
Christen
warfen
elektronischer
Anhänger
hinein,
Wäre
zerstört,
Büro.
strategische
unterschätz@@
theore@@
Berich@@
Jem@@
interpretieren.
Sternen@@
Jä@@
ium@@
wettbewer@@
Rechts
Blindheit
satz,
Welchen
attra@@
Bü@@
Darwin@@
ami@@
Soll
Lig@@
F
liefer@@
frei.
nirgendwo
ativ.
graf@@
Wasserstoff
lichkeits@@
aufzunehmen,
strau@@
bänder
Foo@@
Teile,
unterschied
absorbieren
träge
igt.
anhalten,
besitzer
abwei@@
Nachrich@@
sorgfäl@@
verändernden
Waffen@@
Sprin@@
auf:
verstecken.
Soweit
links,
langfristig
Hän@@
lis
lant@@
Streich@@
landes@@
Tim
vorübergeh@@
formati@@
pädago@@
strei@@
Mega@@
Speicher@@
Fenster,
Nacht.
horizontale
Mumbai
Prinzip@@
Duft
Abteilungen
Sektor
hase
relevant
Reis
schein
nützlicher
spitze
zählen,
la
Schil@@
Sandwich
schste
tue.
immel
gelt
Computers
nachdenke,
Lyn@@
Hals
Herb@@
klat@@
erfassen,
sen?
enth@@
folgen@@
patienten
32
Rick
gehen."
unterirdisch
zielen
om.
bewegten
Porträt
Werkzeug@@
Pherom@@
lt
Stahl
inhaftiert
anwendbar
Offic@@
ermutigt,
inhärenten
kompet@@
Zwe@@
hey,
Diss@@
Bell
Morgen,
grenzüberschrei@@
Beifall@@
Amazonas
inform@@
betru@@
cann@@
dus
h:
Riesenhaie
mente,
tierenden
repräsent@@
anzusehen.
wüs@@
hydro@@
Bill:
unglaub@@
berühren.
Pep@@
Organisation.
chen?
vornehmen,
Denken,
beibehalten
schäm@@
menschlich
Kunden,
Freunden,
Erstens:
Zusammenarbeit,
austau@@
harter
Arbeiter@@
intensi@@
argumentieren,
opfern,
vernünftig,
fonds
iPo@@
bericht@@
widerspiegelt,
ungssystems
effizi@@
Weltklasse-@@
erfolgreich.
Überwach@@
peration
Pastor
jüngere
künst@@
dominiert
White@@
Sl@@
damal@@
vermittel@@
zwöl@@
Ziegel@@
Kris@@
Schluss,
ologie-@@
fällt.
Zutaten
verwickelt
tollen
abgeleitet
wettbewerb
4.
Nano@@
schuh@@
basierten
Gastgeber:
dauert,
teilung,
erholen
entfernten
gelernt?
Anzieh@@
Rendite
festgestellt
umwandeln
effek@@
widmen
Konzert
ständen
persön@@
Sänger
ter"
interaktiven
Rahmen@@
fanta@@
m:
Rock
ara
Etwas
Royal
gewor@@
dichten
Wäldern
Bruder,
jenem
Verletz@@
anfühlt,
bemüh@@
stimmten
fälle,
flaschen
Flaschen@@
fressen
spu@@
öhnen
konsumieren
Brasilien,
Acker@@
fiel@@
London,
begrenzt,
Fußgänger@@
Befreiung
erkennt,
gehören.
liebe@@
fertiggestellt
beschäftigen
wechseln,
wirken,
erschienen.
Aktivitäten.
Lebensräume
komplettes
AR@@
nahr@@
universellen
Prävention
infizierten
Straßenrand
Kreuz
Charge
unmögliche
schockierend
setze
verlorenen
ung",
Mann.
experten
Satz,
schneller,
dringende
zweitausend
maschine.
verheira@@
übrigens,
Schokola@@
schließlich,
Ab
arbeiten?
erlaubte
Kosm@@
Anfangs@@
entführt
Seil@@
ies.
rationalen
ierender
fünfmal
unzureich@@
preise
ankommen,
organisierten
Schwellen@@
ermöglichen.
atorische
rechtlichen
begrenzte
lasen
Südafri@@
Ruh@@
riskan@@
begrün@@
Verkaufs@@
Blei@@
Tisch,
Probanden
beln
hinzuzufügen,
Origami-@@
gespielt.
Nadel@@
begrenzt.
linie.
plus
neigen,
pun@@
änger@@
lische
Barriere
beziehen,
umfassend
streiten
tigere
pflanzen.
Kohlendioxid@@
endgültigen
fs@@
Library
schuss
zurückge@@
Toten
Gebie@@
verbesserte
Chromos@@
veröffentlich@@
unmöglich@@
gien,
in:
en.'
ua
Notiz@@
saß,
Glasfas@@
Stat@@
Ganz@@
üben,
Verb
erhäl@@
ock@@
begeister@@
g!
Geldes
Konzepts
Isolation
blockieren
Broad@@
Seiten@@
freizu@@
sehen:
eintritt,
Dun@@
Vorles@@
Mentor
angelegte
forscher
gendsten
Selbstwertgefühl
glich
Stau@@
Spekul@@
gut?
Farben,
Spa@@
Gefahr,
"Ein
Widerspruch
fluch@@
usw.,
anpassen,
vergrößern
schnitten
lücke
Fuß.
Clu@@
bedeckt.
injizieren,
Fir@@
geborene
tätig
G-@@
lassung
siebten
Seifen@@
O-@@
net,
merken,
woo@@
treib@@
wag@@
ologisch
Ergebnisse.
uner@@
Ausrüstung,
kopf@@
vin@@
Anleitung
Futter
Tut@@
Designern
evolutionäre
rien,
landen.
hohes
Überlebensrate
gerät.
beruht
gewohnt
ttern
Clip
fair
mpf@@
unterzogen
kno@@
se-@@
konservative
discher
High-End-@@
koexistieren
Eigentums@@
kostenlosen
Bart
ermutigt
Links@@
lehrer
Explo@@
Reichtum,
architektonische
Stück@@
CT-@@
Schimpan@@
ogen@@
Reichtums
garan@@
unglückliche
Würden
sage:
unterdrückt
islamische
Verbün@@
zufrieden.
Idio@@
Bedauern
Schwanger@@
pessimist@@
Fußball
beten
gerufen
stolz,
Verkauf@@
asi@@
angenehm
eim@@
Mund@@
Flecken
tote
süßen
regel@@
clevere
gend@@
Partik@@
Stell@@
medien
Kaninchen
erläu@@
worum
UN@@
Fremde
Kop@@
senken.
verabscheu@@
Besuch@@
Großbritann@@
krimin@@
Finanzkrise
ethischen
Demonstra@@
ernster
Provinz
tige,
ktiv,
illa
Unterstütz@@
Krankenschwest@@
Versorg@@
hörten,
Eigenschaften.
Nordpol
willig
nahme
sicht,
passt.
Mobiltelefonen
Florida
Kindheits@@
bestanden
siv@@
Slum
fahrzeuge
Armuts@@
Color@@
ota
Antikörper
Hier,
gehol@@
klugen
ats
$3@@
Fris@@
Reson@@
wirkt,
vermiss@@
theorie
rea@@
Dollar-@@
formationen
Erfin@@
technisch
program@@
Tyrannosaurus
kreisförmige
Dinosauriern
immer:
sofortige
erzähle,
Biosphäre
Millionen.
sen:
Ameri@@
derzeitigen
chten,
pharmazeu@@
optische
implantiert
herunterladen
verbrin@@
GP@@
Individuen,
scheinen,
Nasen@@
draht@@
Batter@@
trockenen
Improvisation
anischer
Public
Brunnen
verschwendet
alten,
Ganze
agen@@
Aktien@@
Mais
Indonesien
Webseiten
extra@@
Raumfahr@@
ärzte
Animationen
Demonstranten
beachten,
ausbreiten
macher
ansteck@@
Erkrankung
anre@@
voranschrei@@
geschichte.
Lun@@
"Gott
Chief
warst,
Kollision
Web
Gravit@@
glas
cel@@
Malerei
aufrechtzuerhalten,
za@@
teu@@
gesendet
zählen
Mord@@
irak@@
ego@@
ssystems
Prostatakrebs
Magnetfeld
Zerstör@@
Tun@@
Beschleun@@
regionen
Taste
(Gelächter
zusammenfü@@
Partn@@
Leitung
ration.
Kapazität
Diät
mussten.
ander
Zuhör@@
9/11-@@
chaotische
einfachsten
rang@@
Prüf@@
Wissen.
Front
Zü@@
Waldes
dyna@@
ausführen,
Falle
Aktivisten
Netzwer@@
Autounfall
spezielles
ktur@@
Danny
Bestechung
Phoenix
Paradig@@
Phantom@@
schweben
organismen
und.
seht,
neu.
Symphon@@
beabsich@@
überwie@@
Titel@@
Emo@@
interag@@
vertrauen.
sinnvoll
lang@@
Länder.
ausgaben
unterrichten,
dich?
Beton@@
Überzeugung
steigt.
Politikern
widme@@
Spanien
Steuerung
Funktions@@
modern@@
zep@@
Persönlichkeits@@
getötet,
falsch@@
unbeschreib@@
Shakespeare
individuelle
zielt
ace
Konstru@@
sicherheit
zerstreu@@
weitem
konvention@@
University.
Hefe
sor
PC@@
warum?
meine.
verwirklichen.
vielversprech@@
artikel
grünes
jen@@
Förder@@
Missverständnis
Betru@@
ote
ollen
sprach.
Einwohner
turen
anziehen,
hindeuten,
schwerwie@@
atz@@
Simon
installiert,
gesammelten
Act
gepf@@
Jazz@@
Tänz@@
the@@
Sper@@
liegenden
spricht.
kapit@@
unbekann@@
hofft
Facebook,
80@@
landen,
disch
frauen
Anders
ränk@@
Gy@@
Beach
Zo@@
Hawaii
versorgung,
hungr@@
besteh@@
Verzehr
trag
markt,
Kreislauf@@
konzeption@@
perspektive
klettern,
Berkeley
Mobilität
leeres
besuchte,
Meistens
Federn
verbindet,
Regul@@
Erkrank@@
wärts@@
bess@@
wird:
Myth@@
schenken.
Verantwortungsbewusstsein
ständig@@
behandelt.
ill
wal
ohen
wale
cken@@
impf@@
Hitze
mpft
niedrigsten
verteilte
nachrichten
kraft,
Geht
City,
Spielern
ausrüstung
Spr@@
Fallschirm
gesto@@
vermei@@
geschafft
eintreten.
genannte
Arme@@
Kond@@
600-@@
stabilen
Gleichungen
kräf@@
Ful@@
Baseball
Zustand,
Genu@@
Äthiop@@
stagn@@
zwischenmenschlichen
Händler
Sich
48
Lake
strom@@
olle,
Eta@@
sieben@@
Freitag@@
durchlaufen,
gestrich@@
bestraft
Methode.
party
uh@@
igung
legt.
verlangsam@@
Zuvor
igt,
Bauern@@
mus.
ruhigen
geschwindig@@
..."
Bewer@@
Mineralien
Stür@@
Feucht@@
steigen@@
übernommen
bekamen
ücken
zeitgenössische
konzep@@
Alterns
Behandlung.
Prior@@
prozess@@
erfolgreich,
Zelle,
Everest
Schlimm@@
takti@@
23-@@
bo-@@
Aliens
Astronauten
et-@@
ter-@@
unend@@
dreht,
immater@@
lagert
Kab@@
Blü@@
Sim@@
raten.
Witz.
sympath@@
machst,
annehmen
Link
treiben.
Wow!
Kamera@@
Kopie
bearbeitet
taus@@
werkzeuge
behäl@@
Drucker
wahl
bücher
1997
Halle
Versicherung
eingeben,
Schwäch@@
gil@@
erwähnen.
aus:
soweit
nie.
"Weil
alien.
Santa
stießen
Tafel
bestrebt,
Juni@@
stern@@
il,
tic@@
Café
Aufzeichn@@
Sicherheit,
Kompromiss@@
Würfel
stehe,
Architektur,
neu,
wiegen
proportional
Ehrfurcht
wissenschaften,
isla@@
raten,
Nütz@@
Frosch
Trinkwasser
oten.
Tieres
vermuten,
Enzy@@
Mäus@@
Fehlern
aufzeichnen,
aufgaben
ologe,
rie
nachzuah@@
Schlussfolger@@
Integr@@
Abraham
frü@@
vermi@@
ard,
Origin@@
Lamp@@
Redak@@
igen@@
Maschine.
Antennen
roboter
Anwendungs@@
verk@@
eigent@@
Café@@
Computing
Mobilfun@@
Anstreng@@
scharf
bru@@
anwesen@@
Fortpflanz@@
isst,
Typ,
zwangsläufig
tan
decken.
Lehrbuch
injiziert
Gebäude.
aufbauen.
Magazins
redest
benutzte,
Erreichen
pal@@
arm,
elektronisches
ular@@
to,
Atomwaff@@
fung
Sally
Mosche@@
religiöser
offenbar@@
Dorf@@
jugend@@
wn
geändert,
2500
Kön@@
regieren
Revolution.
Automat@@
Beachten
isiert,
Versammlung
mikro@@
last@@
ros@@
anziehen
verbrenn@@
male
Seelen
gefil@@
ätze
kontr@@
Schwierigkeiten.
Frühjahr
asen
hät@@
fassen.
Clin@@
wisst,
beträch@@
Zentrala@@
mierung
Jemen
Platz,
Dumm@@
Anony@@
Regierungen,
kommun@@
Tansania
spenden.
weißes
verschwanden
spontan
umfassen
fürchte,
on:
Tuberkulose
manuelle
Eg@@
Kehren
Geschichtenerzähl@@
Primat@@
Kollis@@
Cousin@@
ith@@
Plans
friedlichen
Schlüssel.
Hipp@@
warte,
segne
dunk@@
simulieren.
Eisbären
verliebt
Objekt,
Mörder
externen
medikam@@
geheilt
kehrt
mmer.
nachdem,
produzierte
frische
erzeu@@
esse
Bilder@@
zugreifen
V
Sandwich@@
tlich.
giftigen
Entscheid@@
Entwicklungsl@@
Bevölkerung.
Energieverbrau@@
Öffent@@
Lär@@
Bereichen,
gilt.
ung".
ation:
verschie@@
Rekord
dahin
Veter@@
Nationale
feststellen
osau@@
Hans
Finger,
Metap@@
transplantation
herein
moralischer
bran
Datei
ausländischen
nd
Sied@@
Assozi@@
ihr:
dest@@
gebraten@@
Rezept
Mexiko,
Energiequellen
fossilen
ften.
Arbeitsp@@
anderes,
diagra@@
überraschend.
fortschritt@@
Inn@@
verstecken,
hom@@
Logi@@
ado
löcher
Free@@
ichtet.
Oklahoma
anz.
angenommen,
liefen
dann?
Misserfolge
wäch@@
ine.
Arbeitsweise
vernetz@@
schlechteste
ausgestrahl@@
nützlichen
einzeln
bleibt.
Stev@@
gesamtes
Mitgefühl,
Gewe@@
institutionelle
Glo@@
geplant,
verschwin@@
150-@@
gehalten.
erholen.
ky
mis@@
verletzungen
wilden
Schildkrö@@
ierst
miteinander.
400@@
Meeting
Kindersterblichkeit
Evan
Dschihad
Effe@@
Blinde
konfli@@
Mistkäfer
Skateboar@@
Redwood
Landschaften
Risse
spru@@
Verdau@@
angen@@
kleben
Säule
erstaunlicher
Staates
"Also,
Olymp@@
Vertrauen,
feiern,
empfeh@@
kommst
kehr@@
strenge
vergangen,
irn@@
Exzellenz
darzustellen.
ausgeben.
Mana@@
Verbrennung
angekommen.
Tal
Mission@@
verknüpf@@
Glauben,
Codes
Monaten,
eile
Genome
kä@@
iff
höre,
erraten
ms.
nützt
"Können
Metho@@
issen.
Kühlschrank
Et@@
erzieh@@
betreu@@
kostengünstige
teils
Erwachsenenalter
ands
Aufführ@@
Pian@@
Schlaganfall
Reden,
Synthes@@
weltweit.
Protagonisten
komponenten
griechischen
Protagonist
vorstellen?
son:
Verantwortung.
präzis@@
etho@@
beglei@@
pas@@
Stimmung
beschrei@@
geliebten
perfekt.
Komment@@
perfekt,
sehen."
Plakat@@
(die
esische
Botschaft,
vermieden
biologisch
Recycling@@
Pazif@@
vögel
Stad@@
Erwar@@
19-@@
aufrech@@
Antike
verkehr
riechen
Eben@@
Griechenland
io
erschien,
üt@@
Möbel@@
schalten,
herap@@
wünsche
see
dünn@@
ausmachen.
Poli@@
installieren,
Konflikt@@
widerstehen.
Sche@@
Viel
änden
durchbrechen
Jährigen
Dinge:
binden
gen-@@
mitgebracht
Zeh@@
lehren,
ons,
umgekehrt
Serge@@
29
Heiligen
Baumwolle
Still@@
goldenen
alter,
Urknall@@
Universums,
Außerir@@
Journalist@@
wärst
Black
fleiß@@
griechische
festzu@@
1984
finanziert
Hauptgrund
tage
plant,
auslösen
Parlament
negativ
Studenten@@
ungsmethoden
Umsatz
Ereignis,
konkurrieren,
keits@@
egal.
gingen.
glücklicherweise
tigkeit,
mächtigste
beruflichen
.',
Anwe@@
Joseph
diese.
stamm
Familienmitglieder
ev@@
standar@@
Dür@@
welle
steigenden
zugrunde
verwirklicht
grobe
Medien.
teuer.
Öffnen
rator
entschlossen
verlängern
tragische
int
Schicks@@
halte.
beängstigend,
besiegen.
Durchbrüche
Therapie
antworten.
ologischer
aks
mitgebracht.
hinauf
hinauf@@
demü@@
dankbar,
widmen,
Küchen@@
abgel@@
T.
ente.
Integrität
Kö@@
Verteidig@@
Dokument@@
verschwomm@@
stürzte
lauter
haben."
gebühr
Steck@@
forschungs@@
el:
denten
Zertifik@@
Missverständnisse
Schätzungen
Populationen
ausgebildet
wage
könnten?
tägliches
erklärte,
:00
rein.
beauftra@@
kämpft
roskop@@
Gesicht,
Scan
ppen@@
virtu@@
Blut,
Whit@@
zurückgeführt
erfu@@
hilf
leuchten
yn
Oder,
enswer@@
Gelieb@@
sexuell
nähr@@
Trenn@@
flexible
Ze@@
vereinfach@@
stellungs@@
Palette
ellem
genomm@@
wecken.
Camp
süd@@
gewählt.
Nicht@@
aufrecht
dienst
Europas
dig
Südamerika
e;
Spaziergang
Reinig@@
lamp@@
detaill@@
gal@@
wiederholte
spüre
darstell@@
La
brauchte,
Pl@@
gespräch@@
durchbohr@@
gewünschte
Benutz@@
fragt,
Davor
friedliche
brau@@
Prinzipien,
Passage
Pingu@@
Louis
tier
Käfig
Science-Fiction-@@
angewendet,
Bildgeb@@
angesehen,
är,
Intensität
abgelehnt
benutze,
ce"
Episode
Wichtig
ennen
ation"
US-Wirtschaft
bir@@
Dividen@@
BG:
spolitik
Demokra@@
offensichtlichen
freies
gewal@@
opf@@
Replikation
Operation@@
tigkeits@@
starben,
ertragen.
auf?
Elefanten@@
s",
gebil@@
frist@@
berichten,
reagiert.
gesen@@
errich@@
Ja!
Kämpf@@
Wahrnehmungs@@
TED-Reden
Marathon
ends
kennenzulernen.
hö@@
"sagte
Predig@@
beginnt.
Konzepte,
schrecklich.
Twi@@
kenne.
berechn@@
bedeck@@
verwunderlich,
ständ@@
Junge,
aufen
ergebnissen
heilen,
blüh@@
Filter@@
geeignet,
geschätzt
zugew@@
unglück@@
sonn@@
ähnelt,
kap@@
Aur@@
Erwärm@@
getrieben
erheb@@
Enzyklopädie
Py@@
Regime
konkurrieren.
Parade
erschossen
"Hast
flüch@@
Quantenmechanik
Rundfun@@
Res@@
Ausweg
Variationen
afrikanischer
85%
Billy
Holl@@
mathematisches
Luft.
oft:
Drach@@
1995
ta,
Barrieren
etten,
19
ohnen
Massaker
attraktiver
reson@@
Sequenzierung
Cas@@
Riesen@@
schnell@@
Rotwein
Agenda
brennen
schmutzige
Umweltverschmutzung
ssicher@@
untersucht.
Koff@@
Simulations@@
altmo@@
Hell@@
notwendig.
beziehungen
ilen
auswählen,
Verständnisses
Maßnahmen,
Vermögenswerte
Manga
Pass
wäl@@
Wörter,
Vereinbarung
Bomben
Schlangen
Montag
ola
Thun@@
Korallenriff@@
tz
heißt:
Veränder@@
gä@@
Häus@@
geholfen.
anhalten@@
Dienst@@
höf@@
Best
az@@
ierend.
stimmung
Tool@@
Hambur@@
Position@@
Ameisenkolonien
Wörterbuch@@
D,
Vergnü@@
Disziplin
gefällt,
Leicest@@
gesetzten
Unterschied.
Komödie
farb@@
anrufen
offenes
Quote;
Trock@@
berech@@
angeordnet
Reflexion
Beetho@@
Sele@@
Angestell@@
zier@@
aben
gewährleisten.
heim@@
internen
umstritten@@
anonyme
warn@@
allein.
respekti@@
Waffen,
motiviert
Honig
TV
Moleküle,
zahlreiche
Federal
ministeriums
Skal@@
Bürgerkrie@@
objektive
Erholung
Dirig@@
les,
alismus,
stellige
unzufrieden
bo
Krankenhaus.
Ander@@
ong
beliebtesten
Waschmaschine
schmerzen
Gebäu@@
Paarung
Abed
A:
glaub@@
atome
Meinung,
bein@@
Hai
J:
puff,
WK:
Meer.
gegenüberstehen.
U-Boot
Gig@@
Atlantik
einhalb
Arten.
wächst.
Oberfläche.
Econom@@
Schlamm
fragten:
antworten:
tanzen,
isierung,
lachen,
Unterdrückung
keh@@
Ihnen.
SA
ungsindustrie
Entscheidungsträger
platziert,
rations@@
veranlas@@
wesen
sozio@@
Verwaltung
Reporter
schrumpf@@
Blö@@
Fels@@
experiment@@
einstellen
"Dies
Million@@
zö@@
verließ,
Tageb@@
tieferen
stammen,
tät
w"
riefen
fürs
kontaktieren
sorgen,
Tatort
ach,
super@@
Aqu@@
Eis.
te!
reißen
räume
g"
plötzlichen
sinkt,
entsprechen,
Firmen@@
Bör@@
höheres
daß
Insbesondere
00000
High-Tech-@@
erweise,
Wähler
Sensoren,
lischen
Hero@@
machbar,
kranke
aktivitäten
robo@@
Bom@@
Texte
Hall
Erleb@@
fügt
aufzunehmen
Lautstärke
lauten
anwend@@
Evolution.
aufrichtig
auftritt.
Läch@@
wirst.
stern,
Rücken@@
seite,
Kämpfe
fts
hängen,
belast@@
manipuliert
erneu@@
alten.
Anstrengung
ll
Autop@@
organischen
Geschma@@
stad@@
Anbau
Lor@@
obb@@
porträ@@
gemäß@@
integra@@
dünnen
Anästhes@@
bezeichnen.
bezieht,
trägt.
linearen
aktiv.
zusammenzuarbeiten
verwaltet
dringen
Sylvia
Lungen
ordn@@
Äqu@@
Injektion
stands@@
großzügig
.,
Neuseeland
peinlich
nahm,
kameras
wand,
post@@
minderwer@@
ge-@@
aufwuchs,
männlicher
ihr.
Tür,
Hose
Schwere
geglaubt,
rupp@@
kumul@@
stand:
Schwest@@
Mur@@
schmutzigen
besiegen
medizin@@
leuten
300000
traur@@
Spender
berühmteste
marktes
od@@
Kaffee@@
lings@@
US-Dollar.
Nick@@
iel,
stolper@@
Diagra@@
ender@@
Hausauf@@
entsprechen.
Verhaltensweisen,
motivieren,
gestellten
film
versammeln,
spekulieren,
gebauten
nur:
Cent@@
der:
Kelly
Fitness@@
bezieh@@
vermu@@
verliert
verlangsamen
konsumieren,
macht@@
itäten,
Weniger
sehe.
Hollywood-@@
steckte
sa
dom
entkommen,
versorgen
Übertragungs@@
positiver
gelang@@
ven.
entsteht,
Bibliothe@@
rechts,
gemischte
tigste
isolierten
Erwartung
verboten
kann."
gerung
Entwicklungen
Langlebigkeit
widersprüch@@
schriften
Awar@@
sorganis@@
kürzer
Verlu@@
gefror@@
beharr@@
hinsetzen
Sofa
antworteten:
phy@@
Begriff@@
begrü@@
mich@@
mächtig.
Taucher
Supp@@
terten
bekommst
Schwarzes
gewährleisten,
bell@@
unveränder@@
er."
Dokument
Datei@@
bereitzustellen.
verlangen
its
intellekt@@
stören
geografische
gruppe,
Smartphone
Emotionen.
Erstellung
magi@@
orien@@
zz@@
Forschungsteam
ereien
fluoresz@@
gemalt
Porträts
beherrschen
Techniken,
dicke
Traum@@
sichtbaren
Cass@@
--@@
strahlen
Geschlechts@@
Trauma
Verbindung,
wahrscheinlicher
neuartige
Bildschirm,
Laser
endlos
1500
wandel@@
künstliches
weigerte
ots
Gebärmutter
gestohl@@
widmen.
Mahlzeiten
Vielleicht,
atischen
onn@@
Büros
lebte.
Autonomie
Ski@@
Motors
unterschiedlicher
spiel.
schrieb.
Stühle
ella
geheim@@
Betreu@@
eingesetzt.
Methoden.
schwan@@
rien
eingetaucht
eingeführt,
stoß@@
brach,
col@@
Innov@@
Krist@@
inn
drehe
Kick@@
Leistung,
Daniel
schär@@
y?
kus@@
betrei@@
essen?
exponentiell
Treibhausgas@@
Hot
lager
Minister
se"
recht,
Systems,
Arabischen
Arbeitern
haft@@
Definitionen
kreu@@
ten"
stren@@
Warten
1994
Flüchtlingslager
teuer,
fällen.
spenden,
1999
ähne
Impulse
Lok@@
ausgestrahlt
tanzen.
Edward
theor@@
berücksichtigt
Chanc@@
Shir@@
abstrakten
lustig,
Nachthimmel
scher@@
gemi@@
Wut,
Gebieten,
verwirklich@@
gestartet,
stunden
lerne
ruhen
tatsäch@@
187@@
Jerusalem
Babyl@@
aufgezeichnet.
Gesetzes
wunderbares
oder,
Stämmen
management
Journal
Arbeitspl@@
Dritten
Wind,
Astronomen
widerstands@@
lügen
bege@@
Künstlerin
i:
ieren."
wirtschaftlich
Eigen@@
Tsch@@
Spenden@@
kreieren,
klassifiz@@
Canyon
Lib@@
wichtigere
Betrüger
beigetragen
Stor@@
erfordern.
Image
blätter
Bewegungen,
Mandel@@
lächerlich
usi@@
Käf@@
Gerüche
Past@@
Unsicher@@
allgegenwärtig
Geschlechter@@
begann.
zeichnungen
hundert@@
fähige
indigene
ehmen@@
Leon@@
ermutige
gela@@
zählt,
verwirrt.
CE@@
entscheidend.
abhalten,
Kindersterblichkeitsrate
würden?
Atomen
vere
Südpol
eter@@
exquisite
Skel@@
ett.
durchzu@@
te;
hemm@@
D.
horizontalen
Mis@@
verwalten,
Bankkon@@
bewerten.
Dosen
gravier@@
abziel@@
Clar@@
Verschwinden
absurd
Philip
Struktur.
gewalttä@@
Bogen
schot@@
Vergiss
dist@@
breiter
Grundstein
Vegetation
Gefängnis,
Haushal@@
richtungen,
vorsich@@
unheil@@
Adop@@
kündig@@
ly
Wichtig@@
Seien
Wand,
dampf@@
Schüssel
enswert
angriffe
Rezession
Evalu@@
Mitarbei@@
vertrauten
Community-@@
Hub@@
ungen:
sinken.
Industr@@
stop@@
erhalten@@
extrah@@
Taylor
Moment@@
Networ@@
Apfel
Übersetzer
Gruppe.
verstand,
Möglich@@
Human
Fang
Jur@@
Play@@
Avi@@
Co-@@
dann@@
kt:
Är@@
Einwander@@
vertie@@
Diebstahl@@
brasilianischen
tragen?
Betrachtung
Fahrrä@@
6.
deutsche
aufnehmen.
Wassers
Pharmaunternehmen
dynami@@
gleichen,
Maul@@
Windener@@
ystem@@
bauen?
packte
Gravitations@@
Wahrheit.
eilte
Zy@@
konkrete
mann,
Unabhängig
tigkeit.
Infrastruktur,
Heterosexu@@
last
AIDS,
modell.
Gallone
akte
ziehen?
Test,
stest@@
sorgt
doppel@@
Bildschir@@
"ist
schwarz-@@
Arabisch
Muttersprache
Begriff,
Entfern@@
probe
ham
wähle
Kräften
Guer@@
übr@@
spektakul@@
Medikamenten@@
Angelegen@@
f-@@
ete
mittag@@
Jud@@
Note
fliegende
anfälliger
29@@
inhärente
Körpertemperatur
Susan:
Pestizi@@
3D
tigkeiten
Wirtschaftssystem
Pilot
Videospiele
vollständiger
abschließen
ão
umzuwandeln.
widerstehen,
übersetzt
Inflation
Gesamtmenge
Impul@@
Em@@
Abraha@@
rän@@
Män@@
Frühling@@
institu@@
unerträglich@@
lebe,
Vakuum@@
Intellig@@
Tasman@@
aufger@@
gegensätz@@
simulieren,
more
Hypothe@@
betonen
Cyberkrimin@@
Regiss@@
fähiger
Wik@@
reinigen
subje@@
Oxytoc@@
Mädchen:
Rote
spiegel
Gift
Saudi-Arabien
Jill
Unternehmer,
Entropie@@
Vorur@@
intensiv@@
verhinder@@
Sonde
heißer
wen,
Krei@@
Teig
wich@@
Visiten@@
Insulinresistenz
Glen
prämenstru@@
vin
biegen
Kopfhörer
Verbindungen.
Krab@@
männ@@
Standor@@
Pazifischen
OEC@@
Bulgar@@
Dad
Schritten
stimulieren
"Woher
analysiert
wesentlichen
leistungen
verhält@@
tlicher
Normen
Andererseits
innovativ
Wechsel
15000
Leistungs@@
unterziehen
zurückgelassen
Rauch@@
ungsprojekt
moleküle
Wissen@@
herapeu@@
ziehe
auszuwählen,
einnehmen
90-@@
künstl@@
Brit@@
schmerzhafte
Gandhi
ings@@
det@@
bakter@@
mächtig@@
iss
Gü@@
technisches
hoben
Öl.
Mitte,
reflektier@@
ausprob@@
Antworten,
überschritten
Verschie@@
ungsprogra@@
zu-@@
Einwände
besonder@@
bildung,
krit@@
aufwachen
Beding@@
geistigen
Behinder@@
passt,
erung.
vervollständig@@
Zweck,
Schlüssel,
Orchest@@
änger,
Stadi@@
Basketball@@
populären
Ostküste
intuitiv
Sohn,
heftig
Ern@@
Depress@@
Geräusch,
anderer.
verletzung
akzept@@
Iran,
Tag@@
geraten
atemberauben@@
")
Kommentar
Bilder.
Frankreich,
Ehemann
Güte.
Ofen
Gift@@
werf@@
endem
Eisenbahn@@
entliche
Erschein@@
Blaupause
"F@@
wahrer
ton.
Schale
Ble@@
Vorträge
sanfte
Rückenmark
Proteinen
ometer
lebender
Kapitän
haftes
verwalten.
18-Minuten
läh@@
rapide
Sequenz@@
müh@@
mehrfach
ary
Moskiton@@
ungsproje@@
Schlimmer
karte,
dieses,
ausprobieren
befehl@@
fordern.
Schwestern,
stiegen
etw@@
ckt.
Bindung
ihn:
27
ht.
landen
wiederherzustellen,
Operation,
ersetzt.
vorgenommen
ser@@
Opfer,
ence
uth
Ehem@@
Feh@@
Bereichs
kosten.
Saat@@
festgelegt
westlicher
steil@@
Pflanz@@
versor@@
ise
kas
vorhergesagt
Labyrinth
"Sind
zuzugeben,
beliebt.
ache
würde@@
Bedien@@
zunimmt,
Mal.
niedrig.
Wett@@
zusammenfassen
weich@@
Gründe.
einher@@
gefährlicher
verpasst
Kunden@@
tötete
Wiederauf@@
schläge
schädig@@
beliebten
kanäle
repariert
Bibliotheken
berüch@@
Motorrad
ungsproble@@
vorzei@@
Standpunkt,
bevölkerung
langleb@@
historischer
verlu@@
iPod
kopf
Leichen
Rechten
Bachelor-@@
Barbar@@
Feder@@
Badezimmer
Hallo@@
Sit@@
abel@@
Geor@@
Cloud
sst
stest
emon@@
anfan@@
Explor@@
blaues
neurologische
Träumen
bedienen,
order@@
verteilen
geöffnet,
47
Haw@@
muss@@
Schließ@@
e'
Master@@
Nutzungs@@
interessieren,
personalis@@
Lehrers
Verw@@
woanders
auseinander
32-@@
Parfüm
Antidepressiva
Schwach@@
zeremonie
verlock@@
1975
Ve@@
ari
I.
spekt@@
werken
manuell
angefangen.
Weltfrieden
Pion@@
Raumschiff@@
nehmen@@
gleichzei@@
Cowbo@@
klär@@
Mythos
gefährdete
Kanten
disches
hinsehen,
bewaff@@
mussten,
litt
gig
Stoffwechsel
zehnte
wasser,
berichtet
Enkelkinder
T,
geborenen
vergi@@
ve.
Rutsche
Kleine
wiederum
Pfeil
Wandern
speichern.
Voreingenommenheit
gerne,
instinktiv
bezeichn@@
gewinnt
Rückblickend
hältst
betroffen.
Entwerfen
:30
zentrum,
kostenlos.
Skrip@@
integriert.
welt,
Jan@@
DAR@@
Brustdichte
Fett@@
diagnostizieren
Innovation.
gangen
Überprüfung
angezeigt.
Tä@@
scharfen
Mitte.
Sollten
ogene
Gesamtbevölkerung
Flei@@
Nähr@@
Humm@@
Republikan@@
ök@@
gem@@
Ök@@
wahlen
Brand@@
fach
Bakterien@@
ellen@@
Labor.
Im@@
Schon
stellung.
zir@@
vertraute
Materialien.
Unterhalt@@
liefert.
Merkmal@@
Eltern.
veren
neuron@@
netzwerk
Balance
"Dad,
Lama
Ted
Stringtheorie
nähern.
Ram@@
bestand,
heiraten.
ausgeschlossen
fort
Hass@@
kleidung
Pick@@
Trick@@
heiraten,
Zusammenfass@@
nissen,
Kräh@@
Joshua
Virginia
baum
Cartoon
Kreativität.
beteiligen
üh@@
Virus@@
Venti@@
adap@@
fassung
Galerie
dunkler
Inde@@
pen@@
spreche.
sucht.
helle
Clinton
symbolische
entstanden.
h-@@
umst@@
Anwend@@
Passwor@@
stattfinden
dürfen.
yle
zerstörerische
anzugehen,
gepaart
Gefängnis.
120-@@
wertvollen
Bananen
deu@@
vorstelle,
online,
hierher.
Hypothes@@
esten
getrennt.
ere@@
m-@@
din@@
Völker
Beleucht@@
kontamin@@
Peti@@
gan
Arzt.
Denker
ory
Daher,
handlung
nötig
bran@@
ismus"
vermute,
Hab@@
Schlagan@@
States
Fru@@
Express@@
Roboters
Spiele,
rip@@
spiele.
Werkzeu@@
Kleider@@
Mad@@
zeug
nahme,
irgendwohin
10000
Schwarzen
stätten
Kisten
Verur@@
aw@@
stehen?
büro
Schulungen
orientierte
Karikatur@@
Textur
das@@
erlangen,
Hemisph@@
Tauben
wickeln
Terroran@@
Geburts@@
zusammenhängen,
jagen.
Interventionen
ilis@@
val
roph@@
lindern.
mithilfe
gelte
Pun@@
wissen?
to-@@
Hoo@@
gedeihen
bemerkt.
Geschäftsleute
ände
gress@@
Stromversorgung
reines
mathematischer
geduldig
durchlaufen.
fel,
beschreib@@
geflo@@
ologien
iv.
188@@
Lotterie
hörst,
ähneln
Gase
Unternehm@@
Alarm
separ@@
Piloten
zunehmende
Blutdruck
abgelenkt
gewalttätige
Os@@
ire
Epidemi@@
eigentlich,
entr@@
des:
Grab
Verhinderung
fun@@
80000
Hier@@
gleichgültig
Teddyb@@
bekomme
Vibra@@
video
100-mal
Allen
leugnen,
wieweit
erhoben
äk@@
gü@@
ück@@
Fu@@
mitglie@@
einheitliche
meter
Bandbreite
rufen,
beurteilen,
Galile@@
komprimier@@
Lichtgeschwindigkeit
Massen
Ansich@@
Lehrer.
verletzt.
aufrechtzuerhalten
Lithi@@
utes
geschütz@@
Klage
beobachte
oxi@@
vierzehn
identische
Batterie@@
Autobahnen
bte
Gedich@@
lächeln
umgekehr@@
logische
gefallen,
Pilz@@
Problem?
ruppe
Benutzer@@
Paradies
Wesp@@
elektro@@
Navig@@
Kiste
mungs@@
chten.
spannend
Wang
betrieb@@
Aussage,
pension@@
tasman@@
Derek@@
kennt,
Jubiläum
lohn@@
Konzepten
rasan@@
Intel
sport@@
Experten@@
Count@@
Nathan
Hurrikan@@
verlangsamt
schlimmer,
beginnend
perfekter
Mineral@@
Datenbank@@
Technolog@@
Herz-Kreislauf-@@
Festival
Net@@
Pier@@
gespons@@
ast
forderte
Widersprüche
kohlenstoff@@
Nordkorea
Zivilgesellschaft
Kontra@@
Auton@@
Gecko
Romo
Vogelgrippe
Tesla:
Mars-Rover
Reakt@@
Gary:
Nicol@@
Gabe
Kass@@
längste
Amph@@
Breite
Komponenten,
Meilen,
auftauchen
Gebiet.
Etagen
schwieriger,
leid
eingetreten,
rotes
Hautfar@@
angeborene
gin@@
ike
frisch
vornehmen.
Durchschnit@@
Europ@@
itionen
Klassen@@
ökonomischen
Genie
bürokra@@
gelassen,
zige
Effizi@@
Subventionen
Veranstaltungsort
winkel
Well@@
Programmierung
Geistes
Fortschritts
anato@@
entwickeln?
Sinnes@@
Fürsorge
geblich
verbergen
ärten
Spaß,
ethische
Bedenken
Nanotechnologie
Favorit
vat@@
S:
Techniker
gewohnt,
entfernte
Börse
Skan@@
erwischt
wanderte
Dutzend
Ersatz@@
Verhaltensökon@@
abschneiden
Volkswirtschaften
Beschäftigungs@@
oten
Ansicht,
zusammenzufassen,
Fötus
praktikab@@
luden
bereitstellen,
Parti@@
Patienten@@
inson
halten@@
y".
versetz@@
Bühne.
Zusammen
Lähmung
trafen,
regelmäßige
Tänzer
Hop-@@
frikan@@
Vögel,
let
Wänden
basieren,
Risiko,
deprimiert
Spot@@
wol@@
bat,
anzusehen,
involv@@
auszutauschen.
Libanon
iver
verkün@@
häl@@
abbau@@
Philipp@@
Reserve
Aquarium
Gouverneur
ausgebrei@@
Fleisch,
methode,
geistige
aufrechterhalten.
iums
Lein@@
luxuriö@@
Aktivität,
Appl@@
archite@@
J
benutzen?
größer,
schlimm@@
Berühr@@
springt
fliegenden
Schiffes
ausüben,
installiert.
glei@@
Project
Friedens
aufregend,
Tagen,
Betrag
Digital@@
Sohnes
verstorbenen
aufgewachsen,
Besitz
Beu@@
kümmert.
Trainer
Jähr@@
von@@
Inspe@@
schüttelte
11.@@
vorge@@
Brig@@
Team.
Post
Stan@@
konfer@@
Gesicht.
sprozesses
Narben
Experimen@@
gebildet,
Umständen
vorzubereiten,
TED.
Sonst
promo@@
tun?"
bens@@
ichte
imp@@
Angebot
Preisen
gewählt,
echt
verkauften
verdoppeln
kletterten
überwunden
Wettbewerb,
Wirtschaftskrise
Krieger
inspiriert.
Subje@@
zersch@@
neben@@
Anspruch
Verbindungen,
studio
verdeut@@
ert@@
eilen,
Bett@@
!'!
normalerweise,
Rennen
Ziellinie
langsamen
Beziehungen,
plane
zimm@@
konzentriere
sion,
geplan@@
höchst
Flut
Sw@@
Dürre
Treibhausgase
grenzen
einzigar@@
temporären
gang@@
path@@
Path@@
Chancen,
vollständig.
erkun@@
antike
Stil,
Heiz@@
spät.
Gewich@@
Verstärk@@
bedecken
Sympath@@
Mitgefühl.
tiefstem
akzeptiert.
vernünftig.
bedeutungsvoll
Abkürz@@
O'@@
Johnson
Kamera.
Hilfe@@
ausgegeben.
bereit.
hing
fortzu@@
es!
beit@@
verarbeitung
horizontal
auswählen
on"
findest
Menschenverstand
seid,
Krankenversicherung
forschung,
Übungen
paus@@
korrigieren
mul@@
zeigten,
dramatisch
Wirtschaft.
Griff
Kritik@@
decke
Vinci
Pig@@
pen
detaillierten
Renaiss@@
1991
verzöger@@
Wirbel@@
platziert.
Haup@@
gedauert,
wellen@@
raus,
Strahlungs@@
Besitz@@
vereint
hin?
wirklich?
unterdrück@@
stirbt,
tü@@
zeln
Baumes
Quanti@@
Oreg@@
Formul@@
Sty@@
Fron@@
Schnei@@
bewiesen
camp@@
sack
rate.
Trink@@
Babys,
Zwer@@
Töch@@
n."
geklei@@
mutter
Küche.
aktivität
schuldig@@
Selbstvertrauen
bewertet
Frü@@
quadratisch
Töne
mischen,
umgekehrte
obdach@@
stöck@@
Sam
Trend,
Kamel
merkmale
Tig@@
beherrschen,
Zelle.
Aff@@
ritten,
Antenne
Pha@@
mist@@
Micha@@
Ausstellungen
Faktor,
bs@@
Sowohl
May@@
Detektor
schrittweise
versorgen.
durchsuchen
Okay
Ballons
lange.
organe
ips
nannte.
Gewebe@@
bemerken
Acht
Vegetar@@
tödlich
Bruno
Kirche,
Liberale
right
läd@@
herausra@@
hochgeladen
tauchen,
schaden
Lehrbüch@@
RNA
erschreckend
langweiligen
nutze
ausstellung
Residenz
Priester
70000
kün@@
erlebten
schriften,
Fossil@@
allgemein@@
Funktionsprinzip
ableit@@
erweitert.
Neurowissenschaften
Lebensstil@@
gesun@@
Mul@@
Ek@@
Chi@@
Alphabet@@
Afghanistan.
diskrimin@@
feld.
hätten.
Bestrebungen
starrte
Mutter:
Leder
Analphab@@
erreichte,
Expon@@
verehr@@
Gö@@
orin
klag@@
warteten
Obst@@
Bürgersteig
Trainings@@
trainieren.
gefüllt.
Fische,
besprochen
töd@@
Verfügung,
fortgesetzt
Tragö@@
entsprech@@
Diagnose@@
Nachah@@
it.
anzunehmen,
pech@@
Fass
Däm@@
es."
nach:
Milliarden-@@
Banglade@@
Bring
Ähnlichkeit
Modi
filtern
Andro@@
Trend@@
ole
mals
Zut@@
ischen,
betrachtete
altru@@
Fernsehsen@@
a?
sperson@@
bestätigen
bekämpf@@
Zusammenarbeit.
Wirtschaftswachst@@
Leone
teur
wirken.
primäre
Gesichts
beteil@@
träume
Löchern
Unterschied,
aufgezeichnet,
Krankenhaus,
Mater@@
Unfall@@
Point
ars
Tansan@@
Kontinenten
indigenen
Arktis
Misserfolg
Nichtregierungsorganis@@
einhei@@
jeden,
Gemeinsam@@
inneh@@
Unternehmern
rettete
Infektionsrate
Regionen,
ungsprojekte
sieren
Höhen@@
Eisb@@
Teammitglieder
Mine
Haut,
erwä@@
privat
nachhal@@
Chil@@
kes
Pfund.
Rub@@
Telefon.
dox@@
p,
Mobile
Spezial@@
Hamp@@
dak@@
Überall
Development
erschwing@@
kandid@@
oberste
vo
blicken
Jagd@@
eingeschaltet
verhalten@@
lebenslange
geform@@
Buff@@
fährt,
Krise,
igere
Pak@@
Handheld-@@
t...
stab@@
verliebte
Montana
Ei
Kubik@@
auftra@@
Funktion,
zt,
firma
Pennsylvania
Deutschen
Geige
Rach@@
wenigstens
infiziert.
ransp@@
illen@@
ühl@@
tiere.
Monterey
basis
nukleare
werk,
Schizophren@@
öse
Dauer
LKW@@
streck@@
gefährlich,
tak@@
Netzwerk.
bewohn@@
CD
Än@@
hebung
gesetze
gefall@@
benenn@@
Entschei@@
buchstab@@
scherz@@
gepflanzt
Bekann@@
schaden.
Punkte,
red@@
Ausdrucks@@
besonderes
unkonvention@@
Foundation,
Dos@@
voran.
Tenness@@
ffe@@
erv@@
tic
gas,
Unterrich@@
ziger
bal@@
erfassen.
Seide
ließ,
einen.
gelöscht
Newton
gere@@
Bomben@@
beschreibt
seitige
verdrei@@
Raff@@
risiko@@
Fluss,
erwähnenswert,
ungste@@
Dep@@
stens
Mitgliedern
außer@@
betrunken
danke,
eingeben.
Taube
Erkäl@@
jüngeren
Französisch
Auswahl@@
zufriedenstell@@
Kohlendioxi@@
Brei@@
Differ@@
pakist@@
Mei@@
Fenster@@
zimmer,
beschäftigt.
demokratischer
Abstimm@@
Satur@@
Dunklen
intelligentes
elektromagnetische
Fernsehen,
Angriffen
Ökosystems
Programms
bür@@
hang
Darm
Kuba
kana@@
Zent@@
al-@@
bereiche
britischer
übernach@@
unvergleich@@
Wie@@
Transistoren
Äpfel
geringen
unterschei@@
automatische
sinformationen
Janeiro
sammelten
Zä@@
fliegt.
gänglich@@
autonome
Lands@@
beider
hersteller
gen;
Kogniti@@
Designs,
inge
Adoleszenz
ney
sing@@
legiti@@
Chemiker
stechen
buddh@@
volumen
Überzeug@@
Universen
Schwing@@
durchführ@@
sied@@
Investment@@
Klische@@
quäl@@
ole@@
bank,
institution@@
Zuck@@
auflist@@
Nennen
arer
gewissermaßen
Kosovo
zweier
morgen@@
austr@@
gt?
wat@@
Tastat@@
olymp@@
auftauchen,
bring@@
Wald,
sichts@@
age.
meda@@
Wald.
iertem
wald
Graph@@
Nervensystem@@
Hen@@
linge,
Roger
saktiv@@
HIV@@
Adrian
raff@@
Ergän@@
Banden
Nutzern
zeug,
Drachen@@
3D-Druck@@
Liu
Supral@@
JA:
Quadcopter
Myzel
meister@@
aufregendste
Meerwass@@
Partner,
son.
verschmelzen
Pipelin@@
umwandeln,
gänge
ausseh@@
Stopp@@
EU-@@
Letz@@
Ernst@@
zählt
Arbeitgeber
Aktivität.
Bildungsniveau
Messungen
mäßige
heißes
herausge@@
Portug@@
nicht-@@
beibringen
Weisheit.
Standar@@
Doktoranden
Reaktions@@
Variablen
luft@@
berichte
Abstra@@
injizieren
Blutkörperchen
Wort.
Filme,
clu@@
Parlam@@
Runden
iranische
Flucht
rebell@@
zusammenkommen,
Y-@@
regionale
arab@@
genetisch
sproje@@
Hacker@@
raums
wird@@
SM@@
geht'@@
trocken
tropfen
eben
lege,
silber@@
lindern
vergangen
Rucksack
Nich@@
komplet@@
ränke
Münzen
hypothe@@
Bleistift
erledig@@
dauern@@
Gemeinschaft.
sechzehn
abnehmen
regionalen
Ausgab@@
Zuhörer
Effekt,
menten
kreieren.
kreieren
Tod@@
sorgen.
bedienen.
Melo@@
größer.
Ross@@
Jazz
kompati@@
bar?
Schriftsteller,
Wunden
weinen.
bombard@@
Flag@@
isiert.
Palästina
unterrichte
matischer
Hawai@@
schlossen
zertifiz@@
wild
Reinigung
unabhängiger
voraus.
Einla@@
törichte
Größen
Drähte
Symptom
glüh@@
Begegnung
demonstriert
gliche
Ärm@@
harm@@
braunen
vertikal
könnt,
tie@@
Conservation
Fotogra@@
Bord
greg@@
Marine
ausgestattet,
loben,
galt
Menschlichkeit
Konzentr@@
könne
Abschie@@
betroff@@
tri@@
Jay
gespielt,
schlimmer.
geistig
Tür.
prall@@
vorbereiten
Oberschenk@@
drig@@
selbstständig
Haaren
Digit@@
Führungskräften
niedrigeren
Schuss@@
kampf
kostet.
geheiratet
arrangiert
sofor@@
bereitgestellt
bevorzuge
Wochen.
"Lass
Hoffn@@
Anweis@@
hätte.
lehnen
College,
Hoffnungen
rühr@@
durchgeführ@@
informati@@
Käufer
gelegenen
iken.
kommende
gelei@@
ktionen.
legend@@
anschließ@@
fehler
ager
Mob@@
aufgelist@@
Begriffe
gsp@@
Währ@@
ator.
Fis@@
zitieren,
beschleunigen.
Hut@@
verlangt,
Ausnahme.
Kultur.
Büro,
diskutiert.
Führungsk@@
übertrieben
Rauschen
pack@@
fig@@
Kriegen
ome,
2008-Jahr
Verkehrsmittel
taucht
sign@@
Skiz@@
Klassifizierung
gewidmet
Innenstadt
Schach
kosten,
Entwicklungsprozess
rup@@
fünft@@
rede,
barkeits@@
Nebenwirk@@
Regener@@
Technologien.
Lebensspanne
prinzip@@
radikale
erwachsenen
est,
schä@@
wiedergeboren
mittags
spezialisierte
decken,
Neil
stück
drückt,
beten,
ann
ji
Seminar
lampe
s!
E-Mail@@
Witz,
Microso@@
Dokum@@
Geek@@
verband
erleuch@@
istischer
Nick
erfasst
fortgesch@@
Peer-@@
Ecke.
Missverständ@@
Prophezei@@
änderten
größtes
age,
haut@@
interviewt
zusehen,
geschich@@
Ausgan@@
SA@@
Tablet@@
Projec@@
auftret@@
inneres
Fahrra@@
Mütter,
altet
fat@@
Pflicht
Geschlecht,
klären,
Vorstellungs@@
Ih@@
Intelligenz@@
Orgasmus
freiwill@@
lagern,
äufe
inhaf@@
imitieren,
Details,
lehnte
gerade,
Satellit
Oberseite
Kletter@@
flache
Rob
unerwar@@
Doug
bequemer
grundlegender
dahin@@
kümmere
Industrieländern
unternehmen@@
motor
Europäische
ol,
Behälter
Anforderung
Wohlergehen
Stromaus@@
Gallonen
zweidimension@@
umfasst.
stal@@
Gefühlen
Strom.
überfüll@@
reagiert,
Gand@@
hi,
reinen
bereitete
Blatt@@
äst@@
etisch
ängt
Leiter@@
OL@@
Platz.
Englisch.
Centers
Flur
relevan@@
lis@@
00
Spanisch
revolutionäre
Philanthrop@@
Superhel@@
fek@@
mitnehmen
Popul@@
Forscher,
verwandelt,
Affen,
Craig
repliziert
Erlauben
bestimm@@
Misch@@
gewonn@@
digitaler
Quadrate
aktueller
chirurgischen
Susan
echn@@
hinein.
Möchten
iert:
Barr@@
Stö@@
4000-@@
ssen?
bedeutender
recken
old
republikan@@
fertig,
Überzeugungen,
Großar@@
Republikaner
stück,
Eigentü@@
Sri
hema
ungsplan@@
Virus.
erziehen
hart.
Wand.
röhr@@
recycelt
bener
block
unterstütze
Hirnregionen
Verbind@@
dräng@@
Hochzeit
Bezieh@@
Anhän@@
eintauchen.
Freitag
Berufe
Wahrnehm@@
feln
Van@@
Fälsch@@
streich@@
u.
Polizisten
Präsid@@
angemessen,
starben.
Stipendium
schafts@@
verwirklichen
atoren,
öffentliches
Ungerechtigkeit
Gegenstand
Popularität
getrock@@
Ero@@
beendete
Jefferson
ließ.
vereinen,
lebendig@@
lachten
Münze
omin@@
cu@@
verletzen
ner.
niem@@
liefert,
Labore
beitragen,
Käfer
furchterre@@
Säugetieren
Filter
Bühnen@@
Krankenhäus@@
klasse
Gemeinde@@
Business@@
geschlossen,
gesinn@@
träumen
Gefühl@@
durchgemacht
sensorischen
Technik,
ora
Vereinigte
ei,
wissenschaftler,
gewaltfreien
vorein@@
vertreten
gien.
verrückter
auto
Grenzen.
Gewissen
Kh@@
dent,
60-Jahren
gesellschaftlichen
expor@@
"Dieser
dir?
beunruhigt
Träume,
minen
Freien
Tuberkulo@@
mitt@@
gerettet.
Syndro@@
plötzliche
Beobachtungen
Inspiration,
geblieben
Leben?
sender
Lesern
verlang@@
tter.
Vogel,
untern@@
Lot@@
lungen,
erstaunt
längst
Gaz@@
unschuldig@@
Quali@@
eingeladen.
Toil@@
Milliar@@
wachst@@
entsteht.
Lee
fühlt.
Profi@@
rauen
0.@@
genauen
umzuwandeln,
fehlt.
dau@@
interessierte
gnet.
umzusetzen,
nahme.
Corn@@
Hühner
geba@@
unkte
Gerechtigkeit,
notwendig@@
Maßstab@@
gebrochen.
erio@@
Vokab@@
Flügeln
merkt
"Dieses
Kohleberg@@
unmittel@@
Skla@@
diff@@
ks,
Philadelphia
Dreieck
räfte.
pornograf@@
Großmut@@
verwand@@
dlich
Überprü@@
ergriffen
schicht,
Ansammlung
betont
verbrauch@@
Stromverbrauch
getrie@@
Ce@@
blö@@
Geschmack@@
Virgin@@
verhung@@
etten.
beherber@@
Corporation
beige@@
Zeigen
krist@@
induz@@
bezeichnete
angehoben
Fans
London.
vertraut.
Unterstützer
Überwachungs@@
dentin
Mülleimer
stürzen
gleichermaßen
pump@@
Hof
autonomen
interpre@@
geduldig@@
füllt
Genehmigung
Market@@
Academy
Klimawandel,
prozesses
zäh@@
einrichtung
fliegt,
vertraut,
Erdgas@@
felder
wandern,
kocht
33
darstellen,
Kometen
Perioden@@
Aminosä@@
Motorra@@
.org
Herzinfar@@
$1
verfein@@
Homepage
rücksichtslos
Erdöl
aufwachte,
förderung
Etablierung
'Es
unan@@
fortschrittlicher
konstruktion
parks
Mary@@
räfte
Einnahme
stests
mengen
Gesprächs
Zw@@
verärger@@
Bewusstsein,
gam@@
schri@@
Meet@@
"Haben
tür@@
verstan@@
Trommel@@
hau@@
gestütz@@
Philosoph
analo@@
omie,
Cholera
Dopp@@
AT@@
vermass@@
geschehen,
Kansas
eingebet@@
widersprüchliche
Rü@@
Einsteins
300@@
Ausbild@@
Apropos,
ithme@@
betragen.
Jonathan
Analogie
automat@@
beherrschen.
zwe@@
Vergleichen
Sonnensystems
sage.
Jäger
fließt.
fter
Lut@@
Fledermäus@@
Statistik
Instrument,
Reb@@
Modern
engl@@
Larven
2015
allen)
verwirrt,
leute
Verträge
zeug@@
Automobilindustrie
bä@@
stellungen
Tech
gleiche.
selten.
Fernsehsender
warme
Christent@@
biomime@@
Glied
Kombinationen
Afrika@@
infe@@
Rekru@@
Prinz
ftwar@@
B,
Bürgerrechtsbewegungen
Indik@@
Financial
hinzugefügt.
schaute,
Skep@@
App
leihen,
Stich@@
sourc@@
Gast@@
Atmosphäre.
Kartoffel@@
nahe,
wärt@@
Drohne
fund@@
Untersuch@@
Hauch
Stickstoff@@
zählen.
Australi@@
fürsor@@
regi@@
Megab@@
entscheiden.
Produzenten
Konferenzen
125
Maschinen.
Remote-@@
Odyss@@
sun@@
Staatsan@@
Wiederhol@@
3D-Druck
Spiele@@
frakt@@
Proben@@
SAR@@
beschränken
Einigung
Manuskrip@@
Geck@@
Fruchtfliege
Atheisten
Mücken@@
Phthalat
Natasha
prämenstruellen
Passwort@@
iten.
ika
nör@@
Flüssigkeiten
erst,
Krallen
Bakterium
Ausgang
ite@@
steine
gießen,
Schwefel@@
tropische
freigesetzt
geist@@
jagen,
Kontrolle,
Unterdrück@@
Slogan@@
Kunde
dir@@
Mittage@@
Größen@@
darzustellen,
Investitions@@
erziel@@
them@@
widerspiegelt.
verwaltung
Elternteil
äquivalent
Turm
höhe
unruh@@
board
beitreten
emotionaler
ruppen
Schin@@
beraubt
streiten,
schichten
Künst@@
städten
positiv@@
Ell@@
Biologie,
hi
Schwieger@@
dasselbe,
Besch@@
tropf@@
raffin@@
drücken.
Klebe@@
intensiv
Ratschläge
Aufgab@@
folgt.
gedauert
tie
erhöht,
überzeugend
bundesweit
Vorteile.
K-@@
ansprechen
harmonische
Instrument@@
Oberflächen
bruch,
mente.
getestet.
Displa@@
Aussprache
Westa@@
haus,
Ron
wurde:
reduziert,
Valent@@
Clips
Hip-@@
cli@@
Ignor@@
Bildschirm.
lich."
Palästinens@@
Flugha@@
Oli@@
demokratisches
Magazine
behauptet,
konsumieren.
ertes
Luc@@
Reihen
kton@@
fragmente
hoffnungslos
Sojab@@
transp@@
Austern
Fri@@
gelebt.
Salat
sowieso
"Wann
Mountain
grausame
objektiv
Koordination
Bam@@
drückte
ausgest@@
aktivieren,
beruhigen
hielten.
bietet.
Voraussetz@@
schützt
management@@
alen@@
Heimat@@
schon@@
löschen
radi@@
26-@@
verfolgte
Spannendste
unvorstellbare
Politi@@
Logist@@
Afghanist@@
Pflege@@
Website.
nehme,
Beerdigung
dos@@
liebsten
betrat
begrüß@@
Söhne
Carolina
angekommen,
fst
angemess@@
Schlach@@
nenne,
mans
Zufällig
Ding@@
asst
abspielen
(eine
großartig@@
Quantent@@
unterdrücken
erforscht,
Vermutung
gekämpft
Ablehnung
Softwar@@
Schlupf@@
ds.
soli@@
Hungersnot
knapp
kontaktieren.
entscheidungen
löschen,
Pillen
Naturkatastrophen
Yale
anfing
Bedingungen,
Intern@@
störung
bewusste
iers
Anreize
Monta@@
merken
Erkenn@@
verantwortlich,
beschleunigen,
glücklich@@
istenz
maga@@
Dänemark
Geschwindig@@
Ticket
sex@@
Fau@@
Geschwindigkeiten
Indikator
Meeresspiegel@@
Zuhaus@@
zerstörte
Haustiere
ächer
sil@@
gedei@@
wort
Elemente,
plane,
vereinfachen
besonderer
korrigieren.
unvermeidlich,
einfallen
Tei@@
dert
metabol@@
altern
Fortschritt,
früher.
Lebensdau@@
Unsinn.
schlägt
Chance.
Art@@
Regulierung
Embry@@
Himalaya
28-@@
iere.
kürze@@
empfangen,
besucht,
Sekunde,
Telekommunikations@@
Arbeiter,
Grad-@@
Alter.
Galapagos
Raubtier
Tintenfisch
RO@@
jemand:
lasse,
Auff@@
derung
Hardware-@@
Keiner
Falt@@
Wählen
ungen"
kins
geglaubt
arte
achte
Akade@@
Südafrika,
Disziplinen
wehr@@
getaucht.
motivieren
Princeton
theoretischen
ktische
eindeu@@
Plut@@
Äh@@
wick@@
Schwäche
club
Privile@@
furcht@@
Drogenkons@@
ives
)@@
Argument@@
bekannter
Linse
Ot@@
Erkennung
Bewunderung
Figuren
versich@@
Schätz@@
Staub@@
Planet@@
Minder@@
sexueller
Menschheitsgeschichte,
Geheimnis,
Liebhaber
kontinuierlicher
primitiv@@
Eröffnung
Bereich@@
anbieten,
stücke
generieren,
friedig@@
gezeichnet.
inspirierende
am.
IM@@
th,
45@@
ruhig.
Linie.
Pete
anner
Herzschlag
Stirn
entwickelnden
Asth@@
besprechen
alien,
Kontak@@
Ugan@@
Trin@@
unschuldige
lerin
bewirken.
Lebensbedingungen
Mao
Atmen
ror
Maj@@
aufzeichnen
Momenten
einnehmen,
bedroht.
entre@@
kinder
erwei@@
deten,
Offenbarung
beeinflus@@
blockieren,
lichkeiten,
tauschen
Geist@@
gefrorenen
utzen
sprich@@
schaften.
Install@@
posi@@
schall@@
Top@@
Geschenke
tank
Cal@@
vorn
Unterricht@@
obo@@
Evolution,
leuchtenden
Supermär@@
Etiketten
Schaf
Jag@@
Kugel@@
hitz@@
getaucht
einzusetzen.
ktor,
Klebeband
Unterschieden
Zentimet@@
übertraf
jahrel@@
verwirklichen,
tiertes
erkennung
MR@@
gon@@
Tassen
Entschuldigung,
einmal.
é@@
Transplantation
Nahrung.
Niederlanden
Landwirtschafts@@
sammlung
Urheber@@
Demokraten
vertu@@
Wahn@@
respektieren.
Beamte
indirekt
engagiert
langweilig.
Vir@@
milli@@
explodierte
Leg@@
ursa@@
anthrop@@
Wirbelsäule
Wais@@
ign@@
Objekts
bezüglich
Verzwei@@
Auslands@@
Mittag@@
Hobbys
ness
denz
menschlichem
Homosexualität
Wünschen
ssystem.
derzei@@
Blumen,
eröffnen
star
Irgend@@
fälschlicherweise
Vergewaltigung
alisierung,
"Als
inne
Oberfläch@@
Handwerks@@
Briefta@@
ausgestellt
respektiert
iker,
deutlich,
Befehl
tter,
Irak,
Cy@@
fachen
Idee:
involviert
One
Fahrzeug@@
Nobelpreis
manifest@@
AID@@
benötigt.
White
Norwegen
gnet@@
Literatur@@
gefess@@
psychiat@@
magisches
Schauspieler,
Medienunternehmen
verschwenden.
Jack@@
Emiss@@
gespeichert,
anzuzeigen.
World@@
aufeinanderfolgende
geschul@@
funda@@
sych@@
möglich?
rechtlich
Gastgeber
Kühlschrank@@
demografischen
Z
effektiv,
verursa@@
Gegn@@
widerspiegeln
runter
humor@@
Sehvermögen
psychischer
Wahrnehmung,
Spei@@
tum@@
Buddhismus
Rituale
authenti@@
Publikum)
Fingerab@@
kopieren
trop@@
iesen,
Grasland
Sibi@@
Forschungsprojekt
Romanen
vorzunehmen.
zivil@@
videos
17.@@
zusammenhän@@
individuellen
kollaborative
Lateinamer@@
ika,
raum.
Beschnei@@
situation
chester
Rechte@@
nutzlos.
gisches
do-@@
Soft
Gie@@
gäng@@
Warren
Lungenkrebs
Junk
brot
frisches
Kartoffeln
herstellung
stoffe,
Zwischen@@
humanoi@@
fertiggestellt.
Edelst@@
werk.
nimm@@
ortho@@
riebs@@
fahrzeug
hirn@@
Versicher@@
arrogan@@
Magier
Anführ@@
Gesprächen
op-@@
glor@@
legitime
richtiger
planen.
anderer,
Stär@@
Neuigkeiten
geschie@@
stabiler
hervorgeh@@
ving
Verantwortlichkeiten
"Kein
stimulieren,
stab
City.
Manga@@
beteiligt.
lineare
1993
umkehr@@
Parallel@@
Fenst@@
Regierungsbeam@@
tei@@
biologie
tiefgründig@@
Dr@@
eiter
abilität
Tode@@
Insulin
stri@@
entscheidenden
unerläss@@
aufrichtig,
Ästhetik
22-@@
Tattoos
bearbeiten
Öff@@
prot@@
Gehör
beschäftige
Raums
Brücken
Einwanderungs@@
allein,
schrien
scher,
Nächte
band@@
Verschlüssel@@
Cloud-@@
rechte,
nutzer
Gär@@
Nationen,
bereitstellen
Windmüh@@
gefilmt
ol-@@
auszuprob@@
platz,
Progra@@
Sammel@@
geräte,
wunderbarer
angehen
Medikaments
®
zahl
Security
ationsp@@
nervös,
mics
Bür@@
Erdoberfläche
optimist@@
willkür@@
gezogen,
Herausgeber
Kaliforn@@
nern
Hongkong
anzeigen
putz@@
17-jährig
extrazelluläre
zentrum.
ef@@
schneller.
körperlicher
Premierminist@@
null
gewalt
prognostiz@@
Häl@@
berat@@
Bauern,
wurde?
Brad
verstehst,
CP@@
Audio
freigelassen
Russland,
Teufel@@
geantwor@@
trage,
ndes
So,
Oma
Treibhaus@@
Jacqu@@
Wissenschaftler.
aufeinander@@
gewöhnt,
Intuition,
anne
messer
Cla@@
Anzeigen
Zahl.
realistische
Jahrhunder@@
Landung
Galaxien,
Galax@@
Papiere
erod@@
Information,
w-@@
Verständnis,
ertragen,
Fahrzeug
ut-@@
Spezi@@
selten,
un,
rick@@
Grammatik
Materie,
Stap@@
Protokoll
seltener
erfas@@
magst
breites
Beziehungen.
Ergebnis?
zahlreichen
urop@@
Kreis.
Jupiter
Lichtjahre
Biodiversität
ökonomische
nachhaltiger
Alpha
Puppen
Erinnerungen,
war?
Theorie.
experiment
massiven
inmitten
bewohner
Training@@
Cit@@
wechsel
ols
verfügbaren
verschlimm@@
Exist@@
indischer
loy@@
Werde
Stickstoff
fortgeschrittene
Opti@@
stiz
Administ@@
1989
do,
beitra@@
wun@@
drucken,
frage@@
pass
Recycling
Sicht,
Trost
Leer@@
Island,
beschri@@
Gefahr.
Psychiater
Bag@@
Place@@
Gewür@@
verbreiteten
schmerzhaften
&g@@
fokussiert
mic@@
Oakford:
ianer
Tom@@
~
Absich@@
feldern
gleichberech@@
Näh@@
Pulver
kontrolliert,
zusammengearbeitet
Unterhaltungs@@
Schein@@
gefl@@
Kaulqu@@
implantieren
Zoo
egoist@@
bewusstsein
Lock@@
Telescop@@
weigern
Kerz@@
Wirkung.
Ebola-Virus
Neuseel@@
Hoff@@
nicht!
Neo@@
pünktlich
FOX@@
,7
SETI
Stick@@
treu
Musli@@
partner
Cop@@
Ameisenkolon@@
Besso
Regisseur
erleichtert
Website-@@
Beschäftigung
Blogger
handhaben.
Infektions@@
ausmachen,
Meh@@
Mantis
Wolfram
Amazonas-@@
"Hallo,
oxid
symmet@@
Amazonas@@
Radius
26@@
Guerillas
Rollstuh@@
Bertie
Lako@@
leuchtet
Alp@@
Geräusche,
Tiefsee@@
weiblicher
Revolution@@
Fakten,
kritisiert
konservativ
Dikt@@
geschenkt
präfrontalen
Bewusstseins@@
Mountainb@@
alles?
zurückzuführen,
gesam@@
ancen
Quad@@
ranten
geworden?
Klu@@
Bundesregierung
Deutschland,
verringern,
hierarch@@
methoden.
wählt
Weiter@@
sorganisationen
hinweg
Molekül@@
scheu@@
compu@@
Passag@@
Herzens
Prozent@@
Anwen@@
überschreiten,
Sprachen,
film,
Referenz
achtzehn
weitreich@@
näch@@
Unzufriedenheit
Gemeinsamkeit
nack@@
Teena@@
erzielt,
Erzählung
DI@@
terb@@
sphä@@
Grad.
Ruder
Schur@@
keines
ssituation
Mantel
trug,
schwieriges
Landes@@
übersetzen,
Michigan
ergeb@@
greifbare
IQ
instru@@
"ein
perman@@
müde,
mma@@
osition
Alzheimer-@@
ungsprogramm
verdeutlichen,
Gäste
öffnet.
tön@@
ls
er)
singt
höher@@
Traurig@@
Depression,
Schreck@@
versteht.
mutige
umarmen
geschä@@
gehabt,
wache
Teher@@
Goog@@
erwarten.
Schadstoffe
Breiten@@
linie,
verschlu@@
kochen,
Fut@@
damaligen
anbieten
Besonderes.
bildete
Street,
et"
geografischen
van
Worte.
Denkst
Aluminium@@
abgeschnitten
Tokio
ahr@@
Sportarten
Geschäft,
Wän@@
progra@@
Medikam@@
Myst@@
Anw@@
Philosophie,
landschaft
Boot@@
angepasst.
Naturschutz@@
Kampag@@
Ross
tten
graue
zählung
Aufmerksamkeit.
umzugehen
Kongressabge@@
bewaffneten
kombiniert,
Vision,
nigeri@@
südliche
aufbewahr@@
wie:
verblüff@@
bedauer@@
expon@@
Anliegen
angeord@@
minütige
Offiz@@
M-@@
Kino
Unterstützung,
zwingt
antwortet@@
offen,
verarbeiten.
Restaurant,
multinationale
geld
Großes
1920er
kosmischen
jahren
höchstens
überlebt.
Forderungen
vielfältige
Teils
Hekt@@
ausüben
Rechnung
Dünge@@
risiko
ändert.
Bearbeitungs@@
Düngemittel
Mittleren
wärts
unternehmer
ba
innovativer
markt.
enten@@
verletzte
kämpfte
Ya@@
Normal@@
Korruption,
Fakult@@
n"
klü@@
heim
vorhersagen.
Mittwo@@
Erzieh@@
depress@@
Bauen
vorherzusagen.
Hände.
Aufwand
Ordnung.
hässlich
Frö@@
Städten,
programmen
bewerben,
getaucht,
auferle@@
Erinn@@
zusammenfassen.
Urban@@
schafft.
hr.
Arbeitszeit
erschu@@
verbieten,
senk@@
Aktivitäten,
italienischen
Promotion
Gepäck
zweit@@
Loyalität
schere
Versicherungs@@
schäden
brück@@
Vororte
öffnet,
Win-Win-@@
buch,
Moder@@
Positionierung
saal
Platt@@
Theater@@
ena
bereichs
bereich,
knapp@@
gül@@
Unterbewusstsein
Fluges
wahrscheinlicher,
Fortschritt@@
sammelt,
behand@@
Neuronen,
Wasserquellen
geschw@@
Lektion,
v.Chr.
Antik@@
erschwinglich
lese
außerirdische
vorerst
Gegenstän@@
unauffäll@@
Irland
42-@@
Westküste
Kek@@
Mumba@@
Selbst,
Englischen
Wün@@
vermögen
She@@
itäten.
Raubtiere
schockierend.
näherte
NAS@@
ille,
kontakt
Wich@@
gelangweilt
schlägen
,"
de-@@
Anmerk@@
Version,
Glaube,
Kle@@
Level
halts
Abweich@@
Freiheits@@
ology
kompliziert
zweidimensionalen
98%
dend
nieder
Kreationen
bie
plau@@
Rassen@@
waschen,
Gewalt.
anzuschließen,
Türen
speziel@@
Auftra@@
Vorstellungen
farbe
ende,
fz@@
schlägt,
Dame,
m?
gehalten,
leidenschaft@@
Gefähr@@
zurückkommen,
Beschrei@@
Ausnahmen
Interessanteste
Position,
Gefühle,
bedürfnisse
Täter
Jersey
verliebt.
Belieben
400000
gefaltet
einführen
umfangreiche
ils
rol@@
Stipen@@
katastrophal@@
Gipf@@
Ice
Eis,
ausgesetzt.
Ausrüst@@
issen,
unfähig,
Atmung
produkten
schockierende
rolle
flasche
PA
Neugeborenen
hindeutet,
Was?
ables
Wachst@@
verhindert
Mitternacht
strömen
kon
Koffer
üchtern@@
migen
entlichen
fängst
büch@@
befür@@
Nachbarschaft
p-@@
tierte,
Journalisten,
Wahnsinn
sproble@@
Zeitung,
Entwürfe
hörst
Körpergröße
geänder@@
orange
grü@@
behaupt@@
Aufklärung
Insekten.
angewendet.
prothese
ax@@
physik
diagnostiziert.
erd@@
aufnahmen
kostet,
sal
bildgeb@@
harmonisch
ators
implizi@@
ifiz@@
abschneiden,
Maps
Punkt:
Pix@@
Telefonnummer
Artikels
Lautsprecher
rüber.
zittern@@
Abschnit@@
übt
sprechen?
Zwill@@
veranlasst,
autos
akt@@
Gemeinsam
jung,
vorhand@@
fleisch@@
Eur@@
Lawrence
schaffung
basieren.
formieren
anla@@
wendig
familie
rigor@@
Regulierungs@@
beängstig@@
Stüh@@
zur@@
Ausstellungs@@
koll@@
töteten
satz.
Schauf@@
Beine,
zukünftiges
Geist.
Beweg@@
speichern,
alisieren,
anger@@
Scans
räumliche
Orientierung
trank
gefeu@@
dage@@
Mom
zt.
gehören,
Traum.
Bünd@@
Küch@@
seltsamer
nder
Perfe@@
enhaus
linkes
Lösungen.
interviewte
mädchen
ong@@
interessanter,
heiratete
School.
natürlich.
ausgegraben
gestürz@@
Mittelme@@
wiederherstellen
gigen
denjenigen,
höch@@
Paras@@
Bevölkerungswachst@@
bestehend
Erkennt@@
Bühne,
Subsahara-Afrika
Fortpflanzung
elektron@@
Pollen@@
Kör@@
Weibchen
koch@@
klebr@@
Hintergrund.
Stil.
gen",
Stimmt
Diktatoren
mitgebracht,
Banker
Krawat@@
Müssen
Nik@@
Phr@@
Lippen
Teich
üblich,
abzielt,
bit
zurückblickt,
Noma@@
einzustellen,
umen.
amerikan@@
Anthropologen
Fischerei
interdisziplin@@
Ägypter
Frie@@
sy@@
Armutsbe@@
verlager@@
konferenz
Investitionen,
vermeid@@
passen,
arbeite.
blau,
seu@@
Wiederholung
e?"
ch:
Ham@@
Lk@@
Hunden
Minut@@
Epilepsie
Regal
Single
Twe@@
tigkeit@@
kreis@@
Europäer
ctus
ganz,
nimmst
wandern.
besucht.
toller
manage@@
aufen.
Fahrräder
routinemäß@@
Mü@@
Bildhau@@
lern,
kontra@@
hinauszu@@
Drogenabhän@@
Oster@@
einspar@@
russische
eBay
untersuchte
scannen
kontinuier@@
Bauch@@
Hochdruck@@
"Ah,
bewusster
verfügen,
Telefonnu@@
rah@@
Luft-
Diabetes,
gefährlichsten
Brot,
Bauernhof
Diä@@
Gedicht,
Amb@@
s".
robust
schür@@
schiff@@
Industrien
einkommens@@
Vietnam
Mie@@
Park,
fikations@@
zivilis@@
auti@@
monatigen
geraten.
etts
lichen.
isten.
versteckt.
gesucht,
Voraussetzung
cool,
schüt@@
bereitzustellen,
Sun@@
Town
Politik.
Grundprinzip@@
Anim@@
haut
Vorschlag.
eits
Blutgefäß@@
Lar@@
Täuschung
maler
36
greift
mikrobiellen
ermöglichte,
kaus@@
besetzt
Treib@@
abger@@
strecken
Betrach@@
Ideal@@
begangen
ß.
plauder@@
Signal,
antreiben
beleuchtet
plattform
Ed
AS@@
Heißluftball@@
trainiert,
ihn@@
Cru@@
aber@@
trags@@
1,2
Snowden
kommunikation
melden
Hackern
angemessenen
Comedy
Sprit@@
derjenigen,
Schönheit,
Wettbewerbs
ann,
geprägt
umweltfreundliche
Wasserpump@@
gesellschaft,
ausmacht.
praktischer
tell@@
Gerüchte
Güter
scre@@
Risikokapital@@
übertroff@@
änder.
Umlauf@@
bekanntes
Alber@@
reise,
PE@@
Ostafrika
Meeresfrü@@
"Mama,
ano@@
H-@@
landete
erfüllt,
ausbreiten.
verbrauchen.
thermische
ungleichheit
ogen
langweilig,
verlassene
etabliert.
schwangere
Weibliche
Wen@@
weltweite
Koch
gestap@@
Schöne
Komö@@
Group@@
kriminelle
Mexiko@@
sensib@@
ana,
sho@@
kleinsten
akade@@
abspielen,
hinzuzufügen.
verlässt,
Kohlendioxid,
sicherstellen
Anästhesie
desig@@
Wohlstands@@
Baum,
37
em.
erklären?
Ange@@
Präferenzen
lie
Lobby@@
1000@@
Explosionen
vernetzten
verdun@@
ches
interessieren.
quet@@
bruch@@
anstarr@@
kompliziert.
brem@@
kühlen
tauchten
US-Militär
drän@@
Jones:
aufzuzeichnen,
isierungs@@
vater
Encel@@
religiö@@
forschung.
zeuge,
ik-@@
empfehle
Multivers@@
handhaben
Pek@@
Kindergar@@
Insektizi@@
Tausend
Konzent@@
Geschenk,
punkte,
SJ:
42
Anfang,
fasern
Köpf@@
Grä@@
wirt@@
Sebastian
Aussagen
stationen
ration,
aufwachsen,
Fingerspitzen
zessen
christliche
Algorith@@
Zwil@@
Gesichtern
derer
ausgezeichneten
Reaktor
ds,
uchen
Augenbrau@@
Formen.
Kep@@
aten,
Grun@@
Aufstand
Arm,
versichere
kräften
Kub@@
bilden@@
Studenten.
Urgroß@@
verursachten
Emissions@@
potenziell
paras@@
erisch
Wellenlänge
Kontrolle.
1945
großzüg@@
as:
fragt:
Stärk@@
techniken
Preis.
interpretieren,
Mode
Schreibtisch@@
Dopamin@@
Gesten
Progno@@
Eric@@
Vernetzung
Code,
modi@@
Nicht-Nullsummen@@
Porzell@@
Bank,
gischen
Abgrund
Korallenriff
abgehol@@
eingeh@@
katastrophalen
Fen@@
Regeln.
Bay@@
Wiki@@
Tote
Einzigar@@
verkla@@
ez
Fox
bahnbrechende
Li:
geschlechtsspezifische
sar
Elektroenzephal@@
Rollstüh@@
Dramati@@
Cape
bestätigen.
würdig
ähle
Vic@@
Scrat@@
Kohler:
materi@@
registriert
idsch@@
Afghan@@
Indian
vervollständigen.
Cents
häus@@
beteiligten
Elektri@@
Übel@@
Buckel@@
[unklar@@
800-@@
Naz@@
kontrollierten
Schutzgebiet
Flüchtlings@@
Balti@@
Phon@@
nukle@@
Klimakrise
Senden
Publikums@@
Kakerlake
yte
Replikations@@
Ebola-@@
Migräne
Schriftarten
Riesenha@@
Gabe:
Antenn@@
140
ket@@
Partnern
Muscheln
Dose
Garnelen
emittieren
Lüft@@
empfind@@
Kontinente
gefragt:
Steve,
Innovation"
kulturelles
Faktor@@
vergif@@
konzipiert
förderlich
Tierreich
Rasse,
vorzustellen
schämen
universell
autonom@@
lobt
Av@@
vereinbar@@
unfair
folgt,
Shangha@@
verwende
farbige
2000-er
anerkennen,
ungspolitik
g:
nordamerikan@@
gewandel@@
möglichkeiten,
anspruchsvoll@@
gewährleisten
vern@@
Arterien
säkul@@
Identität,
Club@@
ikas
saison
Lektionen
erwach@@
llen
debat@@
fuß
bs
identi@@
unermüdlich
gemeinnütz@@
freundlichen
Hardwar@@
einzugehen.
Spez@@
veränderten
qualifiziert
Fort
meinst
du?"
dab@@
Yuan,
verbessern?
weggenommen
gelöst,
Außensei@@
Gesetzgeber
Maßnahme
Löhne
unverändert
detailliert
therapeutische
antiken
verschwindet,
übertrifft
Kompet@@
Disney
II@@
Player
fließ@@
abstimmen
lügen,
kämpft.
Wunsch@@
erkenne,
höl@@
auch@@
Iraner
Israelis
posten
antworten,
Fot@@
Einweg@@
spül@@
schmelzen
Zufall,
beiden.
konsumiert
Schott@@
rüber,
unord@@
bezeichnet,
Ideal
imagin@@
überdenken,
Jahren?
rieben,
Bewusstsein@@
Modi@@
äre,
Leiche
spontane
sonsten
Schaltungen
einschalten,
langweilige
gemeinsamer
Umweltschütz@@
Seele.
Fang@@
klus@@
Konvention
"C@@
Privileg
damalige
Bruce
sorganisation
Impf@@
standen,
Waffenstill@@
beobachtete,
Mas@@
rechtes
gesteckt
fertige
Provin@@
drahtloses
Samstag@@
konstruieren,
Gleichstellung
Dienstag@@
Erhol@@
angezogen,
erfahrener
net.
Gesäß
spran@@
ade@@
angriff
konn@@
Konsistenz
Klasse.
Teamkolle@@
schule.
dorthin.
verarbeiten,
21ste
verwende,
ferne
Universums.
jedem,
fremden
zeigen?
ppte
klug,
eten@@
ität?
wird."
aufzugeben.
Transa@@
aufbau@@
äthiop@@
Entsprechend
reiches
stimmen,
jedermann
ahme
Aufsicht
Elementen
saktionen
inlän@@
Karrier@@
entschied,
Widerstandsfähigkeit
ät
ergebnis
loben
herausfordernde
schrecklicher
richtet
Frist
leitete
aussagekräf@@
CEO@@
obigen
Bemerk@@
wärst,
schnelles
begleiten
den;
entlar@@
Fabriken,
langsame
Kaffe@@
BlackBer@@
ünd@@
Verla@@
Entwicklungsländern,
ak,
gefühlt
"Wissen
Häuser,
grund,
elast@@
Ox@@
vietnam@@
Überschwemmungen
ität"
Modernis@@
Dezi@@
sichtlich
seit@@
licht,
zahlt
ison
bild,
Schritt@@
machten,
Sterblichkeits@@
Therapien
bahnbrech@@
zweihundert
Meilenst@@
Technologi@@
stören,
stören.
recherchiert
Nordpol@@
schwar@@
Fing@@
versuchst,
fut@@
drauf
Fliesen
ersetzt,
Schwächen
Zeiten,
eintau@@
überlassen.
Lingu@@
Draht
Gebäudes,
Haupts@@
Informatik
Kabel@@
unangenehm@@
Einsicht
definiert,
ler:
fisch,
loswerden
Bril@@
schnitt@@
reiber
as?
räge
geworfen,
öffneten
zurückkam,
verdient.
Verbinden
ungssoftware
Zulass@@
stim@@
generierte
drängen
erwerben,
reiner
zweite,
bril@@
Hi@@
Zieh
mechanisch
zueinander
Antwort:
zuerst,
steckt,
glänzende
braune
Portra@@
Entdeckung,
Elefan@@
geheimnisvollen
beispiel
beeinträchtigen
transformati@@
Studiums
or-@@
Virtual
Lied,
träumen,
Unbehagen
sprojekt
Carol@@
Nep@@
Tibet
gereist
transzend@@
stet,
Kulturen,
Holocaust
realistisch
Vitalität,
müssten
deprimier@@
Körpern
gemal@@
Kreisen
verlassenen
Zens@@
kleine,
Bedienung
Analo@@
Architekten,
Kür@@
Chris.
Mars.
klettern.
runter.
And@@
schreibt,
Autismus,
Genit@@
Ty@@
wuch@@
hormon@@
umwandel@@
Weich@@
herapie
aussterben
Rachel
Mex@@
gesundheit
nachhaltiges
Val@@
weiche
Hände@@
betrifft.
Enttäu@@
Lauf
Zustand.
gesell@@
get
ament
Entdecker
ideologischen
Bücher.
sanften
spürt
tlich,
Lieblingss@@
Schlitten
schule,
getau@@
italien@@
Digital
einzigartiger
Rah@@
Nigeria,
einige,
Piraten@@
Taschent@@
handgefer@@
erwartet.
wäsche
kommst,
transformieren
Fluoreszenz
Sno@@
ring
geln.
Tho@@
reiten
Stimme.
Medizin.
klassifizieren
Autob@@
schwimmt
besorgniserre@@
Menstru@@
hinweisen
ystem,
gefährlich@@
ool
Kump@@
Bleisti@@
Foot@@
enk
kanadischen
Biomasse
20,
niederlän@@
Dick@@
abzuhalten,
Julian
Disne@@
Obersten
anzunehmen.
Proto@@
Wolkenkratz@@
Wohnungs@@
Tickets
arbeit.
Lieblingst@@
"Kann
"Hör
vermehr@@
Viru@@
natur@@
Intellekt@@
wid@@
temporäre
Ruanda,
kalt.
fällen,
Nag@@
bruch
Bier@@
bringst,
Taiw@@
annehmen.
vorderen
gutem
seitigen
gepar@@
visueller
Paus@@
Drin@@
emotionales
Wofür
Güte
erfahrungen
Schluch@@
Generell
kennenzulernen,
Feminist@@
Müt@@
Minnes@@
Liberia
größter
Arroganz
Augu@@
agen,
Reform@@
schwanger@@
kaufen?
wech@@
ey@@
Allmählich
Elektronik@@
Ehe,
gleichwer@@
zar@@
Cyrus
heb@@
Herrscher
garantiert
spiegel@@
Überlebens
Gefällt
Stammes
einzel@@
zis@@
resul@@
Spritzen
schenken,
Nektar
ankommen
verkleidet
Stärke,
Ey@@
Venus
Happy
Ama@@
hörte.
helf@@
ausbreiten,
Diejenigen
fte.
Unterschiede,
Satz@@
dazu.
lo,
kämpften
Highl@@
Heldent@@
Jazeera
Vizepräsi@@
gib@@
spiel,
steller
Hard@@
quellen,
Kleb@@
Linux
Strategie,
Comedy-@@
Phänomen.
fordern,
31
verhaf@@
Substanz@@
gewaltsam
unterdrücken,
Panzer
Präsi@@
kennt@@
verteilen,
SMS-@@
ei.
standen.
Kopenhagen
bedürf@@
Griechen@@
Illusion,
Mini-@@
tex
pha@@
Nächste
zuge@@
schaffe
et:
Mir@@
generieren.
zwang
Ausgangsp@@
schwebt
Orang-U@@
Aussehen,
Vermut@@
Schnell@@
Migration
Erfolg,
Somalia
sinfe@@
Pfadfin@@
angekündig@@
tun:
allgegenwär@@
ender.
gesunken,
sit@@
entspannt
ämmerung
Mauri@@
Skelett@@
Exemplare
hervorheben
Inneren,
gehöre
1992
schl@@
mmer,
Spiegelbild
NI@@
online.
Wissenschaften
ästhetischen
Zahnbür@@
Blumen@@
Kalor@@
Dick
Muster.
Meisterwerk
gestaltet,
Designer.
Bogen@@
beizubringen.
Zeitplan
zuerst@@
$10000
Kriminalitäts@@
Sprich
geschäft@@
Steinen
Ventilat@@
geerbt
fehlende
England,
1986
Ellbogen
stärken,
Währungs@@
stig
Hebel@@
Werte@@
Low-@@
Anlagen
enture
Forum
14-jährigen
Weit@@
Haltung,
stech@@
Gestalt
müssen?
schriftliche
erledigen,
Atel@@
Zauberer
jeher
Bodh@@
Schallwellen
beschuldigt
Hamburger
Diabet@@
Orten.
bein
Society
Oce@@
Diplomatie
zeuge
triff@@
enteil@@
Signale,
Lichtstrahl
sprung
Ruhe@@
ras@@
pflück@@
umar@@
aktion
ausgeführt
xon
Bridge
Wasserst@@
Mars@@
gleicher
Freundin,
herumzu@@
vorgefer@@
inspirieren.
hr,
begehr@@
Dach,
verbor@@
ulen
Kamele
ep
sey
Schülern,
Video.
Wagen
anten@@
formt
Generation.
süß,
geräten
Nachbar
ged@@
Lotto@@
Ironischerweise
erfun@@
Kohlenwasserstoff@@
ungso@@
minim@@
dite
lex@@
gle@@
Abal@@
umweltfreundlich
geflogen
mater@@
Instant
lenken
gibst,
gestoßen
Entschädigung
stands
Membran@@
molekularer
gefü@@
Erscheinen
Seiten,
Besucher
itze
erneuerbaren
verabschiedet
geführ@@
Gebühren
höher.
anschaue,
kombinierte
frage.
Dienstleistungen,
Silber@@
offenbart
Ladens
Bauer
inakzept@@
beliebteste
ewigen
Körperform
klopfen
wende
wahrnehm@@
fossil@@
geschwäch@@
stür@@
spü@@
gebaute
istisches
Skizzen
cra@@
schmutzig
gebiets
Berlin
afro@@
Afroamerikaner
real.
Stimul@@
Leicester
runde
zufrieden@@
Sab@@
zentri@@
Astronomie
Evolutionstheorie
Tauchen
Tin@@
Pflanze,
Anzeige@@
Aussterbens
Lungenentzün@@
BMW
synthetische
Nase,
gesteuerte
ipher@@
Pentagon
phän@@
Zivilisation,
Engineer@@
beugen
Wolk@@
schwarzer
Spider
erkläre
Publikum@@
Katar
Erzeugung
reflektieren
stapeln
Übertrag@@
Benz@@
Instit@@
Texti@@
Raumstation
bidirektion@@
gering.
ausgedehn@@
vertikalen
Magie.
Großhirnrin@@
Gehirnen
gendste
pflegen
trifft.
haben;
Selbstre@@
Symptomen
strategischen
riechen,
Holzkohle
inhal@@
Wahrheiten
Epochen
Perfektion
igungs@@
geträn@@
Hybrid@@
Pilz
Vor-
sspiel@@
Meerjung@@
staat
Bruttoinlandsprodukt
repräsentieren.
Electr@@
Nachteil
Kontrollgruppe
Gelegenheiten
unauf@@
Wachen
Kolonie
Bienenstö@@
Influenza
Stadtplan@@
Müllhal@@
klassischer
saft
Gepar@@
Zukunfts@@
Känguru
Krebsarten
ösen
Weitere
rache
zuhören.
euren
zurückzuführen.
oll,
weil@@
Labors
Griechen
Kul@@
Auge,
se:
denes
erlitt
Scannen
ierbar
kaput@@
stehlen.
weich
Tor
Netto@@
darunter@@
werks
Sprü@@
rechte.
entdeckten,
Gefahr@@
lebendigen
Kis@@
Bosnien
Ukra@@
arbeit,
TB@@
Epidemien
Animations@@
Spiral@@
zusammenkommen
Woche.
Buchhal@@
Kreativ@@
fortschrittlichen
ophy@@
Thailand
zurückgekehrt.
ase,
codes
Disziplin@@
ieh@@
Nil@@
Grün:
gebraucht
Allah@@
terror@@
mehrdeu@@
Saison
Kokain
Pommes
Zeitungs@@
Autositz
Geometrie
Datenschutz@@
Archime@@
saison@@
beängstigende
Obdach@@
Server@@
Gelb@@
mangel
Kolumbi@@
Hann@@
Epide@@
linear
12%
Meeresschutz@@
Minist@@
Bionik
Abkommen
Schwi@@
ywood
Allah
Widersprü@@
Meme
Rebecca:
N:
Philip@@
Ree@@
Ziffern
Autositze
Veteranen
Higgs-Bo@@
Cochlea-Implan@@
Moskitos
Mücke
Zan@@
Klitoris
Xu:
Steve:
Ullman:
Schleimsch@@
Leggett:
stehst
Sony
Dinge?
stammt,
ungssystem.
Regenwäl@@
angehen.
ahr
weiterentwickeln
ungünst@@
Theater,
mlich
ig?
15-jährigen
Pionier
Stelle.
Asien,
hochwer@@
schlü@@
Hintergründen
Ungar@@
Exek@@
Titelseite
eilen.
mate
Beobachter
Physik@@
Vorliebe
disziplin@@
schrumpfen
gebung
gestalt@@
steam
Washing@@
Stewart
Überlebenden
egoistisch
Auswirkungen.
Kennen
getrunken
Weltmeister@@
Narren
2005,
Halt
ichtung
bedecken.
zufügen
vertret@@
begehen
gläub@@
Atheismus
riss
burgh,
Ehrlichkeit
wecken,
Formulierung
Erwachsenen@@
Magi@@
technologie@@
einzuführen.
gesenkt
begierig
Cell@@
izer
Oper
Opern@@
34
ausdrucks@@
94
gehandel@@
Parameter
ha.
uver@@
Auftritte
U
wiederholten
miker
Blocks
dachte.
Abneigung
Identitäts@@
Plaka@@
veranlasst
überein.
dummen
Syrien
Ron@@
punkt@@
salz@@
kaliforn@@
iste
gestapelt
schwimmenden
ight@@
ige.
verhältnisse
Vorstad@@
aufrechter@@
Ganzen
wiederherzustellen
Füßen,
wind
mich?
Eck@@
einfache,
Hütte
Mix@@
Kletterer
reck@@
Kälte
Lichtsch@@
stattfinden.
schalten.
unangenehme
otherapie
Meter.
Spekulationen
befolgen,
blinden
Jahreszeiten
Okt@@
spot@@
wissenschaft,
technologie.
gemeinschaften
region@@
Berech@@
jahrzehntel@@
öffentlich@@
Kulissen
itis
löschen.
gewar@@
vielfältig
glücklichste
Sohn@@
Ring
Drogen,
konf@@
dominieren
Fallschirmspringen
gur@@
schmerzhaft.
bst
wurdest
kaputt
schuldigen
jun@@
Erfahrungen.
Streitkräfte
verwickel@@
Noti@@
Fußabdrücke
binden.
Unterscheidung
fossilien
Großzügigkeit
chines@@
fortzusetzen.
eindustrie
edle
Afrikas.
strukturelle
zurückgegangen,
verpackt
verfolgt.
Geburtsort
Chicag@@
iens,
Nation
tform
Potenzi@@
bist?
avantgar@@
Aber@@
beworben
hinunter@@
Legende
bedenkt,
Experimente,
zwi@@
Origami@@
ter?
Karl
verlangsamen,
Franklin
Widerstands@@
Wiederbelebung
endere
bezweif@@
Oxfor@@
fordert,
aktu@@
Life@@
Erste
Thail@@
fühle.
an-@@
Verhält@@
Spender@@
Nähe,
70@@
verwandelten
ritt,
Francisco,
Präzedenz@@
zeitgenössischen
ckerei
Ehrgeiz
gang.
Dallas
Aufführungen
ctor
Beck@@
pool
Etage
zivilisierten
Gil@@
Logik,
Regeneration
ursprüngliches
Krankheiten.
omen@@
Prinzip,
Irak-Krieg
gehabt
mäßig
Ever@@
hä@@
Milliarden.
damit.
Apoll@@
bedeuten,
unterbro@@
schäme
Hudson
itz
Thun
Twitter,
Elfenbein@@
verschling@@
Channel
fischen
angreifen
Gott!
Motor,
Güte!
Monit@@
schlei@@
Mac
beschädigte
bekam,
Ironie
Paradox@@
niemand,
RG:
stündigen
Browser
übergehen.
überraschender
ublik@@
Schwelle
Innovationen,
gile
Girl@@
an."
ruf
losigkeit,
strebe
Pala@@
Anfangsphase
ery
Gesichtsausdrücke
abgelei@@
--
Steven
II
pfel@@
Jac@@
schüchtern
verheiratet
gespr@@
Kambodscha
dicken
Phantas@@
e...
abel.
ignoriert.
Dou@@
186@@
gewalt@@
Banjo
dreidimensionales
verhältnis
ventionen
etabliert,
ünst@@
Spazier@@
siv
Audit@@
geschnitten@@
Kunstausstellung
unvorstellbar
massives
Geograph@@
wären.
tank@@
Seiten.
verstor@@
Sehnsucht
krank.
absolvierte
herbei@@
krankheiten
beschäftigen.
Atrazin
aussetz@@
Aro@@
Schad@@
Baby.
Kontin@@
ersten,
Geschäften
Rose
Pfeil@@
Smartphon@@
Gegenwar@@
introver@@
nebeneinander
Führungspositionen
übersehen,
reformier@@
Muhammad
Faust
geführten
Margar@@
Katzen@@
öffne
Storytelling
trockene
?".
Helligkeit
Erlebnis
"Ja@@
Werte,
verkörper@@
entwarfen
Leidenschaft,
Promo@@
barem
wohne
Tank
renov@@
Miete
lick
Ware
übrig,
führend
schaf@@
uminesz@@
DA
Hundes
Institut
separaten
Milch,
gescheh@@
Sekunde.
Penny
Fet@@
typ
Patientin
2000,
vaskul@@
tab@@
digitales
beantra@@
Teams,
Drittens,
Besprech@@
Grafiken
Programmen
führung,
Sponsoren
elegant
Bitte,
Versch@@
isku@@
fielen
ette.
arischen
zucht
genutzt.
Schokoladen@@
Francisco.
Kommentar@@
konstruiert
Auftritt
keineswegs
respektieren,
350-@@
einsetzt,
Offen@@
Fußabdruck
Gebäude@@
recycel@@
Formeln
laufende
geben."
Pavill@@
wiederverwendet
arbeiteten,
präch@@
solide
Compan@@
ehemaliger
2010-@@
wände
besprechen,
Fülle
Segment
Region.
umgebende
Linien@@
markierten
aktivieren.
eröffnet,
Isa@@
edi@@
Freizeit@@
Tragen
T-Shirts
genieß@@
Pizz@@
ungeord@@
Choler@@
geheimnisvolle
kreise
Masken
gelten.
englischer
Ep@@
Carto@@
Massenvernichtungs@@
Geburt,
Politiken
drittes
Müttern
versagt
Gedank@@
Handta@@
müsste
er;
Apple-@@
Minute.
Gründen,
betrat,
viert
Tyran@@
sischen
diversifiz@@
19.Jahrhunderts
interessanterweise
iranischen
Cocktail@@
"das
isation
sprichst,
Schneiden
werden;
Beziehung,
Orchide@@
erhält.
Spektr@@
beschäftigen,
malen.
"Y@@
ähnelt.
Beweisen
umzusetzen
tsch
anzuzeigen,
Empfin@@
Dör@@
wüten@@
Mythologie
bi,
aufzuzeichnen.
Breit@@
band,
Spieler,
Toyota
Eigeninteress@@
vertrauenswürdig
Apollo
veraltet.
Einheit,
Opp@@
dan
Tahrir-@@
Spielen.
verhaft@@
Strohhal@@
Entwicklung@@
Aufmerksamkeit,
Albert
beam@@
Umwel@@
Bewusstsein.
spon@@
ston
Aromen
umfangreich@@
Imit@@
sü@@
gebe@@
drücke,
Schlacht@@
Mongol@@
Milliarden,
Herkun@@
weiser
Cousin
Verwandte
tiefste
War
boot
verfall@@
21.@@
charmant
teilgenommen.
Wohin
Law
ul,
Nationalen
international
36@@
Entwicklungsland
Verkäufe
Erfolgs
fröh@@
Dysenterie
tel.
verursach@@
nördlich
berichten.
Puls
ix
Captain
norwe@@
aufstehen,
fenster
Kontroverse
$100000
refle@@
Enthusiasten
...'
höhle
Bürokra@@
ission
geber
funktionale
nieman@@
anzuru@@
überw@@
vision
dienstleistungen
verflochten
verschmutzung,
bereits.
gesundheitlichen
Vollkorn@@
gles
omat@@
Werke,
Dank!
"L@@
igra@@
erzielte
zin
bers
warmen
entschuldig@@
teilen?
erscho@@
unger@@
brauch,
Vergebung
ergrei@@
tener@@
Thermo@@
ausreichen,
loswerden.
einzigartig.
Thanksgi@@
ergeben,
Ziele,
"Gibt
passierten
Feuerw@@
Tick@@
fernseh@@
Sul@@
trü@@
Bericht,
alters
gelder
kniffl@@
Mahlzeit
weile
unterschiedlich,
wiederholt,
umzuwandeln
Bereitschaft
Penicillin
beziehe
Athlet@@
ystems
medizin
Semin@@
faul
sonnen@@
Flossen
Jap@@
isse
Force
Effek@@
Verdäch@@
ungsrate
vorherzusagen
Notwendig@@
Stoß@@
ultimativen
optischen
Reh@@
val@@
ignal
pfel
binären
forman@@
Organisationsstruktur
Beginn@@
gekauft,
wegl@@
zusätzliches
Menge,
zugäng@@
RI@@
Datener@@
vernünftig@@
Q
Amaz@@
etabl@@
12.@@
siehst.
Süßwasser
mpfe
Koordinat@@
Len@@
Gemü@@
Sieben
rann@@
Wüste.
erhöhte
erhöhten
Wasseroberfläche
ganz@@
nissen.
gebau@@
bester
geeignet@@
aufbauend
Log@@
Illustra@@
Repräsent@@
konsequ@@
kurzfrist@@
Brasilien.
Weltrau@@
mitnehmen.
ktiv.
jur@@
Ken
exper@@
Rohöl
gereinig@@
Kies@@
heran@@
tter
Wör@@
Biomateri@@
benes
herstellt,
veränderungen
Arkan@@
NASA-@@
Gesicht@@
Ablenkung
Krankenwagen
klären
begeg@@
rekrutieren
kostete
Set
überschritten.
istol@@
Kandidaten@@
Indones@@
Begleiter
schwulen
geschützten
Stunde.
Elizabeth
Auslöser
fuß@@
abschließen.
MT@@
Offenlegung
Themas
Wohltä@@
sollst
Date
dens@@
Opfern
gewalttätig
Nein@@
liebe.
entscheidet,
Effektivität
Klo@@
Ven@@
Planet,
350
Hauptursache
Grönland
Engine
akzeptier@@
partik@@
Samen@@
rett@@
entschie@@
Stachel@@
wider
haupt
wertvollste
Faktoren.
weil,
Wertschätzung
Jerry
ichten.
Opposition
Einstein,
ausgerei@@
äß@@
Anderson
ares
Zwiebel@@
"Kannst
sieh@@
verklein@@
gibt:
bürgerlichen
Betrü@@
Konf@@
wow,
denkt.
Feuer,
distanz@@
chirurgie
Kardi@@
Wäch@@
turbul@@
Bureau
haup@@
explodieren
Minute,
Schlu@@
Stromnetz
Abu
realisiert
Gitter
Beschleunigung
Sydney
yot@@
Verab@@
Champ@@
NG@@
schalen
gilt,
ämm@@
Lieferkette
interstellaren
Daw@@
Neurowissenschaftler
Bäume,
kleinem
Are@@
erwor@@
Rent@@
thema
Gebur@@
farbigen
Medit@@
uz@@
rab@@
rief:
Feindseligkeit
Tausend@@
Meta@@
Theorien,
Bewohnern
unabhäng@@
gedruckte
Äl@@
Gehor@@
Dorfbewohn@@
Karotten
fern.
bürger
intern
Dschun@@
iese
stock@@
fa
manipulieren.
häusliche
fern,
verlieb@@
altungs@@
Last@@
energisch
CA
Est@@
Verwirr@@
verletzt,
Herausforderungen.
Black@@
24-Stunden-@@
strömten
Bewert@@
sensible
diten
Aero@@
Seroton@@
Nest@@
Vö@@
Spra@@
Herzerkrank@@
Blutzu@@
JH:
Store
$5
Geldautomaten
Ultraschall
Verlassen
unerträglich
Action-@@
Challen@@
Amsterdam
Nullsumm@@
Stimmen,
Propagan@@
raft
Jama@@
Schiff,
Vakuum
öpfe
Bildschirm@@
istin
haltungs@@
regulieren
sektor
Trauer
Kerzen
Karzin@@
din
Eden
reakt@@
Häupt@@
korrekte
implementiert
Obdachlosen
stieß
Südamer@@
anti-@@
Milo
tödlicher
Adi@@
amei@@
magnetische
Kali@@
cla@@
Schutzgebiete
manipulieren,
?)
Expedition
Sanddünen
Pinguin@@
Beobacht@@
Polizeistation
bia
Programme,
Sah@@
Libyen
"Dann
Sicherheitsgur@@
Todesstrafe
bildeten
anchol@@
Mör@@
aler,
Koka@@
missbrauch
Gordon
Heilige
unwohl,
adip@@
Abnahme
SE@@
Keith
räf@@
FBI
Dimit@@
Delfinen
CO:
Versuchung
Edu@@
Ärz@@
feier@@
Courtes:
Syndroms
Shr@@
Gitarre
exu@@
Norton
Zwergschimpansen
Melinda:
Gezeit@@
Antriebs@@
Lange@@
Zone
Fahrenheit
orn@@
tik.
bakterielle
lichtempfin@@
Singen
praktisch.
optimistisch,
ausdruck@@
Leistung.
ste?
Einschränkungen,
anrufen,
Zwan@@
du:
innen@@
verbringt
exzell@@
Lux@@
berufliche
erfreu@@
benachteil@@
traditionell
Jahrzehnts
Polen
Überzeugung,
Allgemein@@
zehn,
Unterrichts
leistungsfähiger
atmosphä@@
hem@@
Integra@@
Hundert@@
Baldach@@
Kabine
Artikeln
schwingen
Tour
Roboterarm
reichste
DVDs
Mail@@
aufschluss@@
verteidigen
teste,
Boy@@
yn,
sequenz
Synthese
beteiligen,
geförder@@
verdiene
Rut@@
Schmerzen,
"Gib
betrag
betro@@
Experimentator
Mellon
Pittsburgh
zwischen@@
hochwertigen
räften
fremde
Anlage@@
opfern
alische
Schaffen
lustigen
weitergeben
ath
erfolgreich@@
schnapp@@
"System@@
Ansatz.
wagen.
hingehen
Traditionelle
Engineering-@@
Fire@@
Designprozess
(Musik:
ice
Nash@@
schreien,
ruhige
Bob@@
Male,
Band,
ny
Wh@@
rone
Zwi@@
schsten
kämpfe
allgemeines
Neigung
herunter
Kampf,
kämpft,
Schande
wünschte,
dankbar.
achtung
"Welche
erregt
antworteten
Ostens
Treffens
recyceln
fließen,
yo
unternommen
femin@@
Ziehen
verschlechtert
benötigten
Fütter@@
gekommen?
riesig
Besonder@@
Nordosten
ernähren,
Züge
anbauen
Howar@@
widerspricht
Feuchtigkeit
kümmert,
entscheidendes
bete
stattfand.
hervorzu@@
Fälle,
bleib
bösartigen
Verbindungs@@
intensive
p.
gege@@
markiert,
benei@@
dargestellt.
Sauerstoff,
fuhr,
Elean@@
ständigkeit
Fleck
Enden
verheer@@
denz@@
began@@
Spritze
infizierte
nähert
popular@@
ovir@@
mt.
unglaubliches
Ersparnisse
Verhandlungs@@
geliefert
Beifall
gewartet.
stration
Papp@@
Tage@@
rieren
wunderbar.
psychologischer
zurückblicke,
bewahren.
oka@@
gehabt.
internation@@
strain@@
Flugzeug.
Sitze
20-Minuten
Name,
Banken@@
Action
ley,
binde
Tools,
Standorte
erlangen
afghanischen
schwing@@
Bangalore
verfolgt,
gegangen?
heorie
MA@@
3,5
4,@@
Versicherungen
ulen@@
studierte.
reisten
Nieren@@
wundersame
weigern,
loch
Featur@@
Ökonom
reform
ignale
Hierarchie
Verzögerung
Getrei@@
Illino@@
Industrieländer
Landwirten
gisch
aller@@
spor@@
Medicine
dium
findest,
Arztes
steigern
streben,
Präsent@@
yph@@
verdient,
rechnung
Zahlung
seite.
IKEA
'Oh,
tra
ökon@@
inti@@
treibenden
Satzes
verteilt.
sangen
vy
fahren?
Dimen@@
tender
"Eigentlich
yp
schaltete
betreibt
designs
inspirierte
spons@@
Sky@@
Stürme
mes@@
erschwingliche
Oberflächentemperatur
züchten
Mangro@@
vorgestellt,
Ration@@
gestaltet.
Bibliothekar@@
Zeitschriften@@
nungs@@
Erscheinungsbild
zene
untergraben
Korridor
Katastrophe.
Building
Übergangs@@
"Ihr
schwächer
zusammengefasst
Erklärung,
gefas@@
technologi@@
Kategor@@
Wohltätigkeit@@
Zielgruppe:
bekämpfen
Pfa@@
dünner
enheit.
funktions@@
Pakistan,
Bad
live
entmu@@
geschmol@@
hinunter,
zuru@@
Berühm@@
schiff
zurückverfolgt
Ston@@
davon?
Lieblings-@@
erklärt.
buch.
allmählich.
John,
it-@@
längen
Westjordan@@
hochzu@@
aufstrebende
gewesen.
schütteln,
Grenzen,
Kreditkarten@@
gegenübersteht,
U-Boo@@
Lichtquelle
angriff@@
explor@@
Pie@@
kontaktieren,
bildschir@@
können."
Industrie,
35%
Up@@
rollen,
Klick@@
erlit@@
Bell@@
geschichte,
frustriert,
coolen
Funktionen,
ausdrücklich
Mentoren
yan
angebo@@
status
Hintergrund,
ansatz
Üb@@
skur@@
Peer
Y-Achse
erzielten
X-Achse
rag
kompetent
Houst@@
stehlen,
Sie:
iler
en'
überwältigt
hereinkommen
tika
Nov@@
Scann@@
geweckt
illen,
ausprobieren.
Wichtigkeit
konkret
dick@@
ungenutz@@
Kuppel
phase
Nepal
langen@@
altete
poe@@
Interesse,
Abhän@@
Entdeckung.
Würdest
Dial@@
pläne
symbolisiert
Picass@@
statische
ial
gefährdeten
Propor@@
computer
seffekt
klettert
teter
erfüllt.
konstruieren
hir@@
kontrolliert.
Willenskraft
hört.
kämie
Spermien
50%.
-Projekt
regnet,
Wahrzeichen
unruhig
Flus@@
Jupi@@
E,
Übertreibung
sitzt.
"In@@
Ermutigung
umfasst,
Carl
zurückhalten@@
gipfel
Prie@@
nutzt,
lichkeiten.
einzutauchen.
O,
ow
vorschlagen
geistiges
Nicholas
nervös.
Publik@@
Piraten
Online
Beratungs@@
Kopfschmerz@@
Pub@@
"Vielleicht
Bücherreg@@
süße
gentechnisch
pfer@@
Südosta@@
Schaf@@
Tracking-@@
gelegene
Puppen@@
moral@@
anden
Transplant@@
risches
Steuerzahler
Röntgenstrahlen
Lymphkno@@
verpflichtet,
Vorteil.
Manuskript
interagiert
Kalender
freundlicher
Verschmelzung
Desktop-@@
unbeabsichtigt
rob@@
Richard,
Atmosphäre,
schieß@@
Inten@@
stischer
konzentrierten
hingegen
Pflanzen.
kochen.
Anwesende
streifen
stock
erzeug@@
Rindfleisch
futter
uss@@
ani:
Gerichte
denkst.
Pennsylvan@@
gedreht.
gemischten
arbeitung
belohnen,
Erachtens
Gebrauch@@
Gesetzes@@
Verschwör@@
Music
angetrieben.
Lank@@
Bestimm@@
enzellen
angreifen.
professionelles
rohr@@
Termi@@
gebrann@@
Grundla@@
lus@@
errichten.
Austral@@
len.
Anekdo@@
denken?
Knochen,
klusive
cus
Pioniere
Neuronen.
uläre
erstaunliches
achse
Teppich
stärken.
temp@@
Bett.
Hügel
Gut,
Vergewaltig@@
klügsten
tolerieren
befähig@@
Lag@@
Zugehörigkeit
hunder@@
Tali@@
bien
Koloni@@
kleinen,
Stoff
geschützte
Grundschul@@
faden
"Auf
ganzer
ingt.
inie
fertigen
gedacht.
ahn,
beeindruckend
Ton.
bab@@
Diktatur
tei
etablierte
äter
wisst
Betty
Erdnüsse
berührte
begegnet,
Las
Gräuel@@
Dave
schrecklich,
Ermittlungen
wahnsinn@@
iPhones
metall@@
angezogen.
44
Sun
nutzlos,
Vorstellung,
Kissen
Taxi
mächtig,
leitet
gibst
Zahlen.
reichung
repräsentieren,
Whis@@
Kol@@
klassifiziert
Zeichnungen
eus
jemandem,
Markierungen
Beschreibungen
wirtschaftliches
verwandel@@
Gad@@
fi
okra@@
Muslimen
unverändert.
nützliches
YouTube-@@
Simbabwe
Sudan
Treppen
Enkel
verschmelzen.
uldigen
Rund
logisch
Löch@@
Minen@@
beinhaltet,
kopiert
Scheiterns
Geschichte?
Veranstalt@@
Zusammenhänge
misch
Ereignisse,
aup@@
glaubt.
Kräfte,
Experimente.
ks.
viden@@
tterte
Josh
tanzte
befeh@@
Bräuche
gene@@
Warte,
Leute?
DN@@
Label
Klimawandel.
Anfan@@
Chicago,
fleischfress@@
Inhalt,
England.
at.
dem.
Schiffen
schockiert,
Botschafter
Verantwor@@
pin@@
unterziehen,
unterziehen.
eitet.
Kanadas
Jason
ftet
Quadratmeilen
vorherr@@
vorwärts.
Monate.
berater
Dodo
Zimmer,
uren@@
glänz@@
Filmin@@
Coo@@
Antibioti@@
Liz@@
ure,
Lösungen,
ablehn@@
Ketten@@
ernsten
hl
organisch
Sieb@@
lebensech@@
schel@@
eller,
Magen@@
Misserfol@@
Kiefer
Maschinengew@@
summ@@
absoluten
naiv
ppt
Asthma
abgeben
Norm
600000
kampagne
Enri@@
überprüft.
erweiterte
Bakterien.
Bac@@
Medikament,
sez@@
Reinigungs@@
fers
J.
job@@
reinigen.
Verstöß@@
flexibler
spläne
Gefängnissen
stet.
verschlo@@
verbraucht,
Jungen.
Sensibilität
front@@
Thema@@
beschreibt,
zurückgezogen
$50
Einspar@@
weis
kulation
Miner@@
Georgi@@
vier,
Bildschirms
Fabri@@
Roboter-@@
Clayton
hochwertiges
Kalzi@@
Park.
n-@@
sperren
Täusch@@
Samuel
Fantasien
leger
lanz
fließen.
erhiel@@
verurteilt.
mikrobielle
Ozeansonnen@@
Bucht
Nieren
lebens
interpretiert
repräsen@@
igern
18-Jahre
karriere
scheiden
Werte.
dämpf@@
ultra@@
Dop@@
Millisekunden
durchläuft
einzell@@
ymp@@
Gehirn-@@
Helm
beteiligen.
Stunts
Extrem@@
vorzubereiten.
Weltrekord
einheiten
talentierten
endete,
Promin@@
Dias
behalte
Meinungsfreiheit
Lewis
are,
Besatz@@
Landschaft,
änen
Hintergründe
genehmigt
täuschen,
Regen,
Souveränität
Salz@@
Trinken
Elefant
Teich@@
verbracht.
Formel@@
Beste,
hochauflösende
da...
bau.
Aktien
auce
Times,
erfanden
Potter
Weizen@@
Produktiv@@
verdoppelt,
Cam@@
Öls
Bambus@@
Tätigkeit
Teilen.
liebst,
Vokabular
igh@@
Kreide
Kohlenstoff-Nanorö@@
räder
Fund
sechste
Fiction
verglich@@
gemel@@
Kolon@@
sproblem
Hypothesen
bewegung,
Terroranschläge
DV@@
handels@@
scheibe
bezahlt.
häusern
mysteriöse
Ehepartner
Effekt.
zunehmender
erheben
kru@@
ließen,
niedrigere
ärger@@
unfall
kasten
anzuerkennen.
Weis@@
Cool@@
leug@@
Walter
lern.
änderung
Schmel@@
Hungersno@@
ardo
Off@@
Haiti@@
Seen
fähr@@
privater
Feldes
voraus@@
Shakespeares
daten.
repräsentative
Bösen
fortgeschrittenen
Einst@@
partikel
angegriffen,
quelle,
ohn
bewältigen,
griffe
aufgabe
explosion
Ketten
Kinn
äub@@
terroristische
Wir,
zunehmenden
fassen,
ausgedacht
Maden
streben.
uß@@
brachen
endet.
Ohren,
fühlte.
Staus
erin.
dierung
daran@@
ungeh@@
ituationen
ywoo@@
gemie@@
fotografiert
Kultiv@@
Kleid
izz@@
besiegen,
Joel
hof.
Systeme.
f:
standard
Visualisierungs@@
hintereinander
grau
Nematoden
fortschrittlichste
oth@@
Kraftwerk
flugzeug
edia
Leopar@@
Schimpansen,
bewältigen.
primitiv
700-@@
überwälti@@
problemen
flüssigkeit
Drü@@
gebro@@
harmlos
jüng@@
rezep@@
berichteten
männlich
lachen.
CS@@
kosmische
Teilnehmern
sahen.
tot.
verletzten
fül@@
damit?
katastroph@@
kampf@@
Militä@@
Verlierer
Flickr
Vermitt@@
Wikipedi@@
katholische
Mart@@
definiert.
100€
Plastic@@
Mäch@@
vergeben
Dü@@
Gang
Agnes
Goldene
Oscar
tum
ge."
Verifizierungs@@
Ermitt@@
Bevölker@@
'The
doppelten
vermisst
Textnach@@
Versuchs@@
Argentinien
Sicherheit.
leidenschaftliche
exzellente
blockierte
gels
Gott@@
é
qualit@@
irration@@
Comput@@
Raten
Helium@@
Null.
Rauman@@
desselben
licht.
japanischer
gebrochen,
Haut.
McC@@
Finanzen
Krokod@@
Überreste
Osten.
Spinnennetz
Seet@@
sauberer
Hein@@
skep@@
könnte?
schadet
lindustrie
spreng@@
anderthalb
labor@@
wü@@
Organisation@@
omie.
verhalten.
Knochenmark
Empfeh@@
oblig@@
ness@@
Angiogen@@
Delfin
Trocken@@
Ye@@
Oh.
Kiribati
Akzent
$10
Ägypten,
Pferde@@
Recher@@
Qur´an
Wirbelsä@@
Physik,
stufe
beschweren
Absol@@
auszugeben
ivals
Jesse
Impfstoffen
duktion@@
stimuliert
Bauchspeicheldrüsenkrebs
ipeline
Emma
Fibonacci-@@
Hindu@@
industrie.
Schleim
Herausforder@@
getestet,
magst,
akzeptiert,
Zähn@@
Wunder.
Hadron
Crick@@
anstreben
MO:
ti-@@
ampu@@
Der@@
Kutsche
Oliven@@
Kopernik@@
=@@
IM:
Osteurop@@
Astrolabium
Nano-Pat@@
Grace
Amy:
Tezler
John:
Panbanisha
Xianshu
StoryCorps
HG:
Notsignal
Dudu
Titanic
zusammengesetzt
allen@@
Micro@@
Meilen.
aust@@
Bemühungen,
satt
Pro-Kopf-BIP
Kommunismus
ehr,
unterricht,
Anpassungs@@
installieren.
dürfen,
Unterhaltung,
schleich@@
versucht.
sst.
Branchen@@
Vorurteilen
eingestellt,
plaudern
PI@@
niveaus
Finnland
deutliche
Lück@@
niedrig@@
faire
Entscheidungst@@
steckt.
gebildete
Bewertungs@@
Beziehung.
Umfeld,
erfolgreiches
gewartet
Arbeiten,
Shuttle
nicht-inva@@
duktion
tiven
Geschichtenerzähler
Themen@@
Filmemacher
führungen
blicke
Teenager@@
Etik@@
Weinen
Gesellschaften,
Dokumentarfil@@
er",
ring@@
beizutreten.
liebt,
mühelos
text
Gedanke
Fachleute
Strato@@
provoz@@
gerin
teilnehmen@@
Carolina,
Toki@@
blase
Aussicht
man:
verfügbare
schicht.
Dicke
versiegel@@
Verbrenn@@
hass@@
lokales
locken.
halbes
dachten:
schwör@@
Kühlsch@@
bleiben?
Bargeld
alter.
entscheidend,
betrie@@
antreibt.
Ins@@
Ohio
Ann
€@@
Mozar@@
Interfa@@
Auswirkungen,
nahme@@
effektivsten
intelligent,
integrierte
stati@@
Beg@@
Doktorand
CD-@@
MIT,
herstellt.
intakt
Besondere
Sounde@@
Cle@@
verdich@@
aufeinander
naht@@
Bach
innovieren
F-@@
Sinfon@@
Bak@@
ysteme
oug@@
klingt.
liegst
Themen.
verzö@@
Wun@@
aussp@@
Israels
berührt.
schlief
Student@@
Schön,
streiten.
geschätzte
Ich,
kennt.
ag
bahn@@
Irgendwann
Plastikmü@@
erbärm@@
Meeresoberfläche
Zoo@@
Orleans
geräum@@
1100
pers@@
gesellschaft@@
wohnen
zulassen
Ackerland
Göttern
Ernten
reserven
Zwängen
brauchten,
ischste
angewiesen,
Gewächshaus
prägt
Recherchen
geliehen
Alumin@@
Komitee
aten.
arbeitete.
einzigartig,
identischen
Pack@@
Infektion@@
kratzen
Gefühl.
chronische
breitete
werfer
sensorische
solche,
Theoretisch
Soziologen
Kreatur@@
ften,
umgeben.
Plankton
unterstützten
ore-@@
Killer@@
fisch
Costa
expandieren
Gewässer
Interessen@@
Impfung
dämm@@
schienen
wirksamen
darstellt
enorm
Inje@@
indien
Takti@@
tes:
Gebiete,
versprechen,
Sec@@
brie@@
gebühr@@
fo@@
gespeich@@
initiiert
sind;
Scho@@
Zimmer.
Schnell
endig@@
draußen.
46@@
ys@@
loyal
Kommandant
Stich
Organisationen.
Epo@@
bewahren,
Beamten
kaufe
Shan@@
eifer@@
Normalerweise,
angesammelt
Wohltätigkeit
Konzerne
shm@@
mi,
außerirdischen
under@@
überein,
sowjetischen
unbekannt.
schwersten
abgelehn@@
tiefgründige
Anerkenn@@
Feigl@@
Marktan@@
verdoppelt.
Getreide@@
unzureichende
nächst@@
nennen:
Niederschlag
wartet,
Board
kopieren,
eingeführt.
Schwester,
kontrollierte
bleibe
schnitte
Pot@@
irgendeinen
weniger.
Szenarien
Dinner@@
übernahm
metter@@
identisch
Perspektiv@@
Fün@@
Studios
sinnvolles
Chor
beendet.
loszuwerden.
entspannen
Geschwindigkeits@@
ieren@@
philosophische
geht?
stürzen.
Taxi@@
sekund@@
bezeichnen,
drohen
Überschwemm@@
nan@@
versorgen,
fragilen
wäss@@
tens:
Fuß-@@
Assistenten
gefär@@
effizient,
mom@@
Einkaufszentren
char@@
Lautsprech@@
Klick
ville,
Center,
64
Quadratfuß
[...]
